{
  "version": "1.0",
  "truncation": null,
  "padding": null,
  "added_tokens": [
    {
      "id": 0,
      "content": "<|pad|>",
      "single_word": false,
      "lstrip": false,
      "rstrip": false,
      "normalized": false,
      "special": true
    },
    {
      "id": 1,
      "content": "<|bos|>",
      "single_word": false,
      "lstrip": false,
      "rstrip": false,
      "normalized": false,
      "special": true
    },
    {
      "id": 2,
      "content": "<|eos|>",
      "single_word": false,
      "lstrip": false,
      "rstrip": false,
      "normalized": false,
      "special": true
    },
    {
      "id": 3,
      "content": "<|unk|>",
      "single_word": false,
      "lstrip": false,
      "rstrip": false,
      "normalized": false,
      "special": true
    }
  ],
  "normalizer": null,
  "pre_tokenizer": {
    "type": "ByteLevel",
    "add_prefix_space": false,
    "trim_offsets": true,
    "use_regex": true
  },
  "post_processor": null,
  "decoder": null,
  "model": {
    "type": "BPE",
    "dropout": null,
    "unk_token": null,
    "continuing_subword_prefix": null,
    "end_of_word_suffix": null,
    "fuse_unk": false,
    "byte_fallback": false,
    "ignore_merges": false,
    "vocab": {
      "<|pad|>": 0,
      "<|bos|>": 1,
      "<|eos|>": 2,
      "<|unk|>": 3,
      "!": 4,
      "\"": 5,
      "#": 6,
      "$": 7,
      "%": 8,
      "&": 9,
      "'": 10,
      "(": 11,
      ")": 12,
      "*": 13,
      "+": 14,
      ",": 15,
      "-": 16,
      ".": 17,
      "/": 18,
      "0": 19,
      "1": 20,
      "2": 21,
      "3": 22,
      "4": 23,
      "5": 24,
      "6": 25,
      "7": 26,
      "8": 27,
      "9": 28,
      ":": 29,
      ";": 30,
      "<": 31,
      "=": 32,
      ">": 33,
      "?": 34,
      "@": 35,
      "A": 36,
      "B": 37,
      "C": 38,
      "D": 39,
      "E": 40,
      "F": 41,
      "G": 42,
      "H": 43,
      "I": 44,
      "J": 45,
      "K": 46,
      "L": 47,
      "M": 48,
      "N": 49,
      "O": 50,
      "P": 51,
      "Q": 52,
      "R": 53,
      "S": 54,
      "T": 55,
      "U": 56,
      "V": 57,
      "W": 58,
      "X": 59,
      "Y": 60,
      "Z": 61,
      "[": 62,
      "\\": 63,
      "]": 64,
      "^": 65,
      "_": 66,
      "`": 67,
      "a": 68,
      "b": 69,
      "c": 70,
      "d": 71,
      "e": 72,
      "f": 73,
      "g": 74,
      "h": 75,
      "i": 76,
      "j": 77,
      "k": 78,
      "l": 79,
      "m": 80,
      "n": 81,
      "o": 82,
      "p": 83,
      "q": 84,
      "r": 85,
      "s": 86,
      "t": 87,
      "u": 88,
      "v": 89,
      "w": 90,
      "x": 91,
      "y": 92,
      "z": 93,
      "|": 94,
      "~": 95,
      "¡": 96,
      "¢": 97,
      "£": 98,
      "¤": 99,
      "¥": 100,
      "¦": 101,
      "§": 102,
      "¨": 103,
      "©": 104,
      "ª": 105,
      "«": 106,
      "¬": 107,
      "®": 108,
      "¯": 109,
      "°": 110,
      "±": 111,
      "²": 112,
      "³": 113,
      "´": 114,
      "µ": 115,
      "¶": 116,
      "·": 117,
      "¸": 118,
      "¹": 119,
      "º": 120,
      "»": 121,
      "¼": 122,
      "½": 123,
      "¾": 124,
      "¿": 125,
      "Â": 126,
      "Ã": 127,
      "Ä": 128,
      "Å": 129,
      "É": 130,
      "Ê": 131,
      "Ë": 132,
      "Î": 133,
      "Ï": 134,
      "Ð": 135,
      "Ñ": 136,
      "×": 137,
      "Ø": 138,
      "Ù": 139,
      "à": 140,
      "á": 141,
      "â": 142,
      "ã": 143,
      "ä": 144,
      "å": 145,
      "æ": 146,
      "ç": 147,
      "è": 148,
      "é": 149,
      "ê": 150,
      "ë": 151,
      "ì": 152,
      "í": 153,
      "ï": 154,
      "ð": 155,
      "Ċ": 156,
      "Ġ": 157,
      "Ģ": 158,
      "ģ": 159,
      "Ĥ": 160,
      "ĥ": 161,
      "Ħ": 162,
      "ħ": 163,
      "Ĩ": 164,
      "ĩ": 165,
      "Ī": 166,
      "ī": 167,
      "Ĭ": 168,
      "ĭ": 169,
      "Į": 170,
      "į": 171,
      "İ": 172,
      "ı": 173,
      "Ĳ": 174,
      "ĳ": 175,
      "Ĵ": 176,
      "ĵ": 177,
      "Ķ": 178,
      "ķ": 179,
      "ĸ": 180,
      "Ĺ": 181,
      "ĺ": 182,
      "Ļ": 183,
      "ļ": 184,
      "Ľ": 185,
      "ľ": 186,
      "Ŀ": 187,
      "ŀ": 188,
      "Ł": 189,
      "ł": 190,
      "Ń": 191,
      "Ġt": 192,
      "Ġa": 193,
      "he": 194,
      "in": 195,
      "re": 196,
      "Ġthe": 197,
      "on": 198,
      "er": 199,
      "Ġs": 200,
      "Ġw": 201,
      "at": 202,
      "Ġo": 203,
      "nd": 204,
      "it": 205,
      "Ġc": 206,
      "is": 207,
      "or": 208,
      "Ġb": 209,
      "en": 210,
      "es": 211,
      "ou": 212,
      "Ġf": 213,
      "ing": 214,
      "Ġp": 215,
      "ed": 216,
      "an": 217,
      "Ġto": 218,
      "Ġm": 219,
      "al": 220,
      "ar": 221,
      "Ġof": 222,
      "Ġand": 223,
      "Ġin": 224,
      "Ġd": 225,
      "Ġh": 226,
      "Ġth": 227,
      "as": 228,
      "ic": 229,
      "le": 230,
      "om": 231,
      "ion": 232,
      "ll": 233,
      "Ġl": 234,
      "ĠI": 235,
      "Ġn": 236,
      "ve": 237,
      "ent": 238,
      "st": 239,
      "Ġre": 240,
      "Ġe": 241,
      "âĢ": 242,
      "Ġg": 243,
      "ro": 244,
      "ly": 245,
      "Ġbe": 246,
      "ĠT": 247,
      "ot": 248,
      "ut": 249,
      "Ġy": 250,
      "ĠS": 251,
      "ac": 252,
      "Ġis": 253,
      "ay": 254,
      "Ġon": 255,
      "id": 256,
      "et": 257,
      "ĠA": 258,
      "Ġfor": 259,
      "ow": 260,
      "Ġthat": 261,
      "se": 262,
      "ĠC": 263,
      "ad": 264,
      "am": 265,
      "im": 266,
      "ur": 267,
      "Ġyou": 268,
      "Ġu": 269,
      "ig": 270,
      "ct": 271,
      "ver": 272,
      "ld": 273,
      "Ġit": 274,
      "ith": 275,
      "Ġst": 276,
      "Ġhe": 277,
      "ĠM": 278,
      "ation": 279,
      "ir": 280,
      "Ġwith": 281,
      "Ġwe": 282,
      "Ġwh": 283,
      "ce": 284,
      "ol": 285,
      "il": 286,
      "ĠB": 287,
      "ch": 288,
      "ĠP": 289,
      "ter": 290,
      "Ġan": 291,
      "âĢĻ": 292,
      "ill": 293,
      "Ġas": 294,
      "Ġha": 295,
      "ke": 296,
      "ĠW": 297,
      "ers": 298,
      "if": 299,
      "her": 300,
      "Ġare": 301,
      "oo": 302,
      "ĠH": 303,
      "ag": 304,
      "Ġwas": 305,
      "Ġat": 306,
      "Ġse": 307,
      "ĠD": 308,
      "Ġpro": 309,
      "Ġor": 310,
      "ate": 311,
      "ĠR": 312,
      "ri": 313,
      "ul": 314,
      "Ġ(": 315,
      "Ġcon": 316,
      "Ġ2": 317,
      "ĠThe": 318,
      "Ġ1": 319,
      "pp": 320,
      "Ġr": 321,
      "em": 322,
      "ĠF": 323,
      "ore": 324,
      "th": 325,
      "Ġcom": 326,
      "igh": 327,
      "ess": 328,
      "rom": 329,
      "est": 330,
      "ist": 331,
      "us": 332,
      "ain": 333,
      "Ġde": 334,
      "ew": 335,
      "Ġhave": 336,
      "ab": 337,
      "op": 338,
      "'s": 339,
      "ĠN": 340,
      "Ġnot": 341,
      "un": 342,
      "um": 343,
      "ĠL": 344,
      "and": 345,
      "Ġthis": 346,
      "ant": 347,
      "ĠG": 348,
      "res": 349,
      "ity": 350,
      "Ġex": 351,
      "el": 352,
      "ĠE": 353,
      "qu": 354,
      "ust": 355,
      "Ġfrom": 356,
      "Ġv": 357,
      "pe": 358,
      "ive": 359,
      "art": 360,
      "Ġby": 361,
      "ment": 362,
      "Ġsh": 363,
      "Ġsu": 364,
      "nt": 365,
      "ight": 366,
      "ort": 367,
      "ould": 368,
      "ĠO": 369,
      "Ġal": 370,
      "os": 371,
      "out": 372,
      "all": 373,
      "oc": 374,
      "ard": 375,
      "ies": 376,
      "ome": 377,
      "ĠâĢ": 378,
      "ĠJ": 379,
      "Ġch": 380,
      "Ġdo": 381,
      "Ġle": 382,
      "ost": 383,
      "00": 384,
      "Ġab": 385,
      "our": 386,
      "gh": 387,
      "Ġj": 388,
      "Ġcan": 389,
      "ud": 390,
      "ally": 391,
      "ear": 392,
      "Ġwor": 393,
      "Ġwill": 394,
      "ap": 395,
      "ast": 396,
      "red": 397,
      "Ġtr": 398,
      "Ġbut": 399,
      "ak": 400,
      "Ġk": 401,
      "Ġall": 402,
      "Ġpl": 403,
      "iv": 404,
      "ack": 405,
      "od": 406,
      "Ġme": 407,
      "ough": 408,
      "Ġyour": 409,
      "te": 410,
      "Ġhas": 411,
      "Ġwhe": 412,
      "ge": 413,
      "The": 414,
      "ide": 415,
      "Ġne": 416,
      "Ġmy": 417,
      "ie": 418,
      "Ġup": 419,
      "Ġthey": 420,
      "ther": 421,
      "Ġout": 422,
      "ich": 423,
      "Ġ\"": 424,
      "Ġso": 425,
      "ff": 426,
      "ine": 427,
      "one": 428,
      "..": 429,
      "ure": 430,
      "ĠU": 431,
      "og": 432,
      "Ġus": 433,
      "ice": 434,
      "Ġhis": 435,
      "ake": 436,
      "ook": 437,
      "ind": 438,
      "Ġone": 439,
      "Ġad": 440,
      "ood": 441,
      "Ġwho": 442,
      "age": 443,
      "act": 444,
      "Ġli": 445,
      "ound": 446,
      "ame": 447,
      "ial": 448,
      "ions": 449,
      "Ġmore": 450,
      "pl": 451,
      "ect": 452,
      "Ġabout": 453,
      "Ġtheir": 454,
      "ong": 455,
      "very": 456,
      "pt": 457,
      "ber": 458,
      "are": 459,
      "Ġgo": 460,
      "ous": 461,
      "âĢĿ": 462,
      "Ġte": 463,
      "Ġsa": 464,
      "per": 465,
      "ated": 466,
      "ĠTh": 467,
      "ime": 468,
      "ra": 469,
      "cc": 470,
      "ip": 471,
      "ans": 472,
      "ite": 473,
      "Ġar": 474,
      "ub": 475,
      "Ġen": 476,
      "Ġcl": 477,
      "01": 478,
      "ks": 479,
      "ary": 480,
      "au": 481,
      "ue": 482,
      "able": 483,
      "ĠSt": 484,
      "Ġwhich": 485,
      "iz": 486,
      "ĠIn": 487,
      "orm": 488,
      "Ġsome": 489,
      "Ġim": 490,
      "Ġman": 491,
      "ase": 492,
      "ĠK": 493,
      "so": 494,
      "ry": 495,
      "Ġother": 496,
      "Ġcomp": 497,
      "ĠY": 498,
      "to": 499,
      "Ġcont": 500,
      "Ġhad": 501,
      "Ġany": 502,
      "Ġlike": 503,
      "ven": 504,
      "ace": 505,
      "Ġwould": 506,
      "ail": 507,
      "Ġour": 508,
      "ach": 509,
      "Ġoff": 510,
      "ass": 511,
      "Ġres": 512,
      "Ġkn": 513,
      "Ġthere": 514,
      "Ġwhat": 515,
      "Ġag": 516,
      "Ġyear": 517,
      "ia": 518,
      "ire": 519,
      "Ġwere": 520,
      "ep": 521,
      "reat": 522,
      "ays": 523,
      "ĠâĢľ": 524,
      "cl": 525,
      "Ġbeen": 526,
      "'t": 527,
      "ĠCh": 528,
      "Ġget": 529,
      "ick": 530,
      "ult": 531,
      "Ġqu": 532,
      "Ġapp": 533,
      "ree": 534,
      "ings": 535,
      "ĠIt": 536,
      "ance": 537,
      "ose": 538,
      "Ġthem": 539,
      "Ġun": 540,
      "ations": 541,
      "own": 542,
      "ib": 543,
      "Ġ-": 544,
      "Ġdis": 545,
      "Ġjust": 546,
      "Ġper": 547,
      "ove": 548,
      "ond": 549,
      "ign": 550,
      "Ġher": 551,
      "Ġpe": 552,
      "Ġwhen": 553,
      "Ġtime": 554,
      "ink": 555,
      "ount": 556,
      "ord": 557,
      "Ġnew": 558,
      "Ġ3": 559,
      "Ġif": 560,
      "Ġsp": 561,
      "Ġpart": 562,
      "Ġ201": 563,
      "Ġbec": 564,
      "Ġwork": 565,
      "ress": 566,
      "ical": 567,
      "ile": 568,
      "mer": 569,
      "Ġthan": 570,
      "av": 571,
      "Ġalso": 572,
      "uc": 573,
      "irst": 574,
      "Ġsaid": 575,
      "ĠV": 576,
      "Ġover": 577,
      "ĠHe": 578,
      "ction": 579,
      "Ġsc": 580,
      "ents": 581,
      "ence": 582,
      "ople": 583,
      "erv": 584,
      "Ġrec": 585,
      "ish": 586,
      "fe": 587,
      "ru": 588,
      "ors": 589,
      "ĠWe": 590,
      "form": 591,
      "vel": 592,
      "Ġtw": 593,
      "int": 594,
      "itt": 595,
      "Ġgr": 596,
      "ark": 597,
      "fter": 598,
      "Ġno": 599,
      "Ġfe": 600,
      "wn": 601,
      "hed": 602,
      "Ġpr": 603,
      "ens": 604,
      "Ġinto": 605,
      "ause": 606,
      "ition": 607,
      "Ġpre": 608,
      "Ġpeople": 609,
      "port": 610,
      "nder": 611,
      "Ġam": 612,
      "ob": 613,
      "Ġfirst": 614,
      "Ġspe": 615,
      "Ġbl": 616,
      "ang": 617,
      "Ġhow": 618,
      "Ġ19": 619,
      "ade": 620,
      "Ġknow": 621,
      "ild": 622,
      "Ġro": 623,
      "ory": 624,
      "lic": 625,
      "ren": 626,
      "Ġshe": 627,
      "ning": 628,
      "we": 629,
      "vers": 630,
      "ons": 631,
      "rough": 632,
      "Ġco": 633,
      "Ġ200": 634,
      "day": 635,
      "Ġits": 636,
      "hing": 637,
      "ov": 638,
      "Ġacc": 639,
      "ater": 640,
      "oy": 641,
      "Ġneed": 642,
      "amp": 643,
      "gr": 644,
      "ec": 645,
      "Ġtwo": 646,
      ").": 647,
      "ious": 648,
      "ft": 649,
      "Ġonly": 650,
      "Ġsee": 651,
      "Ġmay": 652,
      "ates": 653,
      "Ġ4": 654,
      "Ġwant": 655,
      "Ġmake": 656,
      "ne": 657,
      "ull": 658,
      "Ġlook": 659,
      "Ġpo": 660,
      "Ġplay": 661,
      "Ġcould": 662,
      "ian": 663,
      "ual": 664,
      "Ġback": 665,
      "Ġunder": 666,
      "iss": 667,
      "clud": 668,
      "Ġfl": 669,
      "Ġbet": 670,
      "ict": 671,
      "Ġthink": 672,
      "Ġadd": 673,
      "Ġdon": 674,
      "Ġevery": 675,
      "sel": 676,
      "Ġmost": 677,
      "ces": 678,
      "Ġafter": 679,
      "Ġcomm": 680,
      "Ġdes": 681,
      "Ġdid": 682,
      "Ġthese": 683,
      "Ġthrough": 684,
      "tern": 685,
      "ily": 686,
      "du": 687,
      "end": 688,
      "Ġbecause": 689,
      "Ġnow": 690,
      "rent": 691,
      "Ġhim": 692,
      "xt": 693,
      "Ġact": 694,
      "Ġgood": 695,
      "...": 696,
      "uch": 697,
      "ĠAnd": 698,
      "ĠThis": 699,
      "com": 700,
      "Ġhere": 701,
      "Ġvery": 702,
      "fore": 703,
      "Ġwell": 704,
      "urn": 705,
      "aking": 706,
      "Ġuse": 707,
      "Th": 708,
      "Ġ5": 709,
      "Ġcons": 710,
      "Ġthen": 711,
      "Ġph": 712,
      "ife": 713,
      "aw": 714,
      "oll": 715,
      "lp": 716,
      "ject": 717,
      "Ġway": 718,
      "ise": 719,
      "Ġmany": 720,
      "Ġright": 721,
      "Ġem": 722,
      "Ġeven": 723,
      "Ġinclud": 724,
      "ĠâĢĵ": 725,
      "row": 726,
      "Ġbr": 727,
      ".\"": 728,
      "iew": 729,
      "Ġind": 730,
      "ating": 731,
      "ĠUn": 732,
      "Ġhelp": 733,
      "ble": 734,
      "Ġyears": 735,
      "Ġsec": 736,
      "ock": 737,
      "Ġwhere": 738,
      "ting": 739,
      "oup": 740,
      "les": 741,
      "ty": 742,
      "ities": 743,
      "Ġprov": 744,
      "Ġshould": 745,
      "Ġagain": 746,
      "Ġbu": 747,
      "erson": 748,
      "other": 749,
      "pect": 750,
      "ss": 751,
      "Ġtoo": 752,
      "Ġdif": 753,
      "hen": 754,
      "ful": 755,
      "Ġgu": 756,
      "ational": 757,
      "omet": 758,
      "lect": 759,
      "Ġmuch": 760,
      "Ġdown": 761,
      "up": 762,
      "rit": 763,
      "Ġdoes": 764,
      "ĠWh": 765,
      "ts": 766,
      "Ġcol": 767,
      "olog": 768,
      "Ġev": 769,
      "Ġrem": 770,
      "ments": 771,
      "Ġthose": 772,
      "li": 773,
      "Ġown": 774,
      "),": 775,
      "ason": 776,
      "oss": 777,
      "Ġreg": 778,
      "Ġ$": 779,
      "ĠRe": 780,
      "ĠYou": 781,
      "ng": 782,
      "Ġstud": 783,
      "Ġgreat": 784,
      "ork": 785,
      "als": 786,
      "Ġstart": 787,
      "ĠBut": 788,
      "Ġsupp": 789,
      "Ġent": 790,
      "ident": 791,
      "ward": 792,
      "Ġsm": 793,
      "ont": 794,
      "Ġatt": 795,
      "Ġke": 796,
      "oth": 797,
      "pr": 798,
      "ci": 799,
      "old": 800,
      "ert": 801,
      "ited": 802,
      "ool": 803,
      "ath": 804,
      "Ġwee": 805,
      "Ġread": 806,
      "Ġday": 807,
      "ell": 808,
      "erm": 809,
      "Ġlast": 810,
      "Ġsuch": 811,
      "get": 812,
      "ific": 813,
      "Ġcall": 814,
      "Ġac": 815,
      "Ġsy": 816,
      "Ġserv": 817,
      "Ġbel": 818,
      "Ġass": 819,
      "meric": 820,
      "Ġdec": 821,
      "Ġsay": 822,
      "ics": 823,
      "Ġinv": 824,
      "Ġbeing": 825,
      "Ġmade": 826,
      "rib": 827,
      "ible": 828,
      "Ġimp": 829,
      "ĠNew": 830,
      "Ġgoing": 831,
      "alk": 832,
      "Ġ6": 833,
      "ices": 834,
      "Ġpres": 835,
      "Ġlong": 836,
      "ublic": 837,
      "ener": 838,
      "Ġinc": 839,
      "Ġbefore": 840,
      "ility": 841,
      "ĠCom": 842,
      "hes": 843,
      "bs": 844,
      "Ġfin": 845,
      "Ġend": 846,
      "Ġrel": 847,
      "Ġshow": 848,
      "ange": 849,
      "Ġreally": 850,
      "ular": 851,
      "Ġinst": 852,
      "ased": 853,
      "uring": 854,
      "ied": 855,
      "ner": 856,
      "ually": 857,
      "Ġworld": 858,
      "its": 859,
      "anc": 860,
      "Ġinte": 861,
      "In": 862,
      "Ġthough": 863,
      "ince": 864,
      "Ġperson": 865,
      "ah": 866,
      "arch": 867,
      "ĠDe": 868,
      "ale": 869,
      "formation": 870,
      "cess": 871,
      "ix": 872,
      "ys": 873,
      "ues": 874,
      "Ġsomet": 875,
      "enc": 876,
      "hip": 877,
      "Ġpol": 878,
      "ved": 879,
      "||": 880,
      "Ġfind": 881,
      "ĠAmeric": 882,
      "ollow": 883,
      "ures": 884,
      "ave": 885,
      "ee": 886,
      "ĠIf": 887,
      "Ġtake": 888,
      "ative": 889,
      "Ġmon": 890,
      "und": 891,
      "Ġpost": 892,
      "ower": 893,
      "Ġear": 894,
      "air": 895,
      "Ġset": 896,
      "imes": 897,
      "ck": 898,
      "iness": 899,
      "Ġmem": 900,
      "ĠAr": 901,
      "self": 902,
      "ather": 903,
      "Ġstill": 904,
      "Ġeff": 905,
      "way": 906,
      "rest": 907,
      "Ġthings": 908,
      "Ġmin": 909,
      "velop": 910,
      "ters": 911,
      "Ġche": 912,
      "stem": 913,
      "ĠPro": 914,
      "land": 915,
      "gan": 916,
      "ittle": 917,
      "ric": 918,
      "Ġrun": 919,
      "io": 920,
      ".âĢĿ": 921,
      "Ġcar": 922,
      "--": 923,
      "Ġhigh": 924,
      "any": 925,
      "akes": 926,
      "oun": 927,
      "Ġfam": 928,
      "Ġop": 929,
      "Ġspec": 930,
      "read": 931,
      "Ġmed": 932,
      ",\"": 933,
      "Ġbus": 934,
      "Ġdiffe": 935,
      "Ġlife": 936,
      "Ġexper": 937,
      "gg": 938,
      "chool": 939,
      "az": 940,
      "ĠAl": 941,
      "ving": 942,
      "gram": 943,
      "alth": 944,
      "led": 945,
      "Ġ&": 946,
      "Ġins": 947,
      "Ġpoint": 948,
      "Ġcount": 949,
      "cept": 950,
      "ages": 951,
      "ists": 952,
      "Ġret": 953,
      "Ġfew": 954,
      "Ġsim": 955,
      "Ġsame": 956,
      "Ġcour": 957,
      "Ġteam": 958,
      "Ġart": 959,
      "Ġeach": 960,
      "ives": 961,
      "Ġwhile": 962,
      "lease": 963,
      "Ġ7": 964,
      "atch": 965,
      "Ġsur": 966,
      "Ġfollow": 967,
      "ank": 968,
      "arm": 969,
      "Ġreal": 970,
      "ouse": 971,
      "Ġed": 972,
      "Ġsub": 973,
      "Ġinter": 974,
      "Ġinformation": 975,
      "ivers": 976,
      "Ġgot": 977,
      "Ġstr": 978,
      "ĠThey": 979,
      "Ġlittle": 980,
      "Ġhand": 981,
      "Ġser": 982,
      "the": 983,
      "ines": 984,
      "Ġ10": 985,
      "Ġhome": 986,
      "Ġused": 987,
      "Ġdisc": 988,
      "Ġi": 989,
      "Ġthree": 990,
      "Ġtrans": 991,
      "Ġrequ": 992,
      "man": 993,
      "Ġnum": 994,
      "ever": 995,
      "Ġhapp": 996,
      "Ġaround": 997,
      "We": 998,
      "oh": 999,
      "Ġcre": 1000,
      "ute": 1001,
      "irect": 1002,
      "ins": 1003,
      "ween": 1004,
      "'m": 1005,
      "ĠSo": 1006,
      "Ġ8": 1007,
      "ex": 1008,
      "Ġcur": 1009,
      "Ġprodu": 1010,
      "ves": 1011,
      "ames": 1012,
      "Ġlot": 1013,
      "riend": 1014,
      "ĠSh": 1015,
      "ution": 1016,
      "ĠAn": 1017,
      "der": 1018,
      "ax": 1019,
      "rap": 1020,
      "Ġloc": 1021,
      "Ġdevelop": 1022,
      "Ġstate": 1023,
      "thing": 1024,
      "Ġbest": 1025,
      "ient": 1026,
      "Ġav": 1027,
      "Ġfeel": 1028,
      "It": 1029,
      "br": 1030,
      "ph": 1031,
      "Ġfound": 1032,
      "Ġ9": 1033,
      "Ġsomething": 1034,
      "Ġfr": 1035,
      "ets": 1036,
      "Ġsystem": 1037,
      "Ġlead": 1038,
      "Ġquest": 1039,
      "âĢľ": 1040,
      "Ġboth": 1041,
      "ience": 1042,
      "ars": 1043,
      "Ġbetween": 1044,
      "Ġsl": 1045,
      "ways": 1046,
      "Ġpass": 1047,
      "Ġchild": 1048,
      "ness": 1049,
      "Ġ2012": 1050,
      "ement": 1051,
      "uth": 1052,
      "blem": 1053,
      "ying": 1054,
      "Ġanother": 1055,
      "Ġbook": 1056,
      "oci": 1057,
      "vern": 1058,
      "Ġdef": 1059,
      "Ġmod": 1060,
      "ash": 1061,
      "000": 1062,
      "Ġsign": 1063,
      "oot": 1064,
      "ton": 1065,
      "Ġlove": 1066,
      "ĠFor": 1067,
      "ered": 1068,
      "Ġcare": 1069,
      "Wh": 1070,
      "unity": 1071,
      "ants": 1072,
      "ann": 1073,
      "Ġcome": 1074,
      "Ġdet": 1075,
      "Ġnever": 1076,
      "ense": 1077,
      "Ġgame": 1078,
      "Ġform": 1079,
      "chn": 1080,
      "orn": 1081,
      "illion": 1082,
      "Ġplace": 1083,
      "ĠAs": 1084,
      "Ġrep": 1085,
      "Ġsince": 1086,
      "This": 1087,
      "ug": 1088,
      "view": 1089,
      "ef": 1090,
      "bers": 1091,
      "Ġput": 1092,
      "Ġvis": 1093,
      "'ve": 1094,
      "uck": 1095,
      "Ġlar": 1096,
      "Ġsupport": 1097,
      "Ġprogram": 1098,
      "ĠLe": 1099,
      "rist": 1100,
      "ĠCl": 1101,
      "Ġfun": 1102,
      "reen": 1103,
      "Ġproblem": 1104,
      "ize": 1105,
      "Ġcr": 1106,
      "Ġiss": 1107,
      "Ġinf": 1108,
      "Ġlist": 1109,
      "ĠAd": 1110,
      "Ġchar": 1111,
      "line": 1112,
      "Ġnext": 1113,
      "Ġcomple": 1114,
      "ĠThere": 1115,
      "Ġask": 1116,
      "ĠFr": 1117,
      "Ġexp": 1118,
      "Ġbig": 1119,
      "Ġdifferent": 1120,
      "Ġob": 1121,
      "ature": 1122,
      "ital": 1123,
      "Ġfact": 1124,
      "Ġtri": 1125,
      "arn": 1126,
      "Ġsecond": 1127,
      "son": 1128,
      "Ġmonth": 1129,
      "Ġadv": 1130,
      "ired": 1131,
      "Ġbusiness": 1132,
      "Ġfil": 1133,
      ",âĢĿ": 1134,
      "less": 1135,
      "Ġ'": 1136,
      "Ġgener": 1137,
      "ield": 1138,
      "ger": 1139,
      "ten": 1140,
      "Ġpublic": 1141,
      "ĠAll": 1142,
      "Ġlet": 1143,
      "ox": 1144,
      "Ġbetter": 1145,
      "'re": 1146,
      "Ġpartic": 1147,
      "Ġmark": 1148,
      "ished": 1149,
      "ross": 1150,
      "Ġweek": 1151,
      "cer": 1152,
      "Ġfree": 1153,
      "ody": 1154,
      "Ġcle": 1155,
      "Ġpur": 1156,
      "Ġeas": 1157,
      "aining": 1158,
      "Ġalways": 1159,
      "Ġmust": 1160,
      "ĠThat": 1161,
      "ized": 1162,
      "ention": 1163,
      "be": 1164,
      "Ġreport": 1165,
      "Ġbelie": 1166,
      "Ġmet": 1167,
      "Ġduring": 1168,
      "Ġgl": 1169,
      "ĠSe": 1170,
      "ĠShe": 1171,
      "Ġinterest": 1172,
      "Ġgroup": 1173,
      "Ġhead": 1174,
      "ĠBl": 1175,
      "ology": 1176,
      "Ġ0": 1177,
      "Ġtop": 1178,
      "ret": 1179,
      "duc": 1180,
      "con": 1181,
      "ically": 1182,
      "stand": 1183,
      "Ġopen": 1184,
      "Ġagainst": 1185,
      "Ġkeep": 1186,
      "Ġwithout": 1187,
      "Ġappro": 1188,
      "ĠâĢĶ": 1189,
      "Ġprovid": 1190,
      "Ġcontin": 1191,
      "Ġmight": 1192,
      "Ġrest": 1193,
      "atur": 1194,
      "ata": 1195,
      "Ġsmall": 1196,
      "19": 1197,
      "cent": 1198,
      "Ġunt": 1199,
      "Ġresult": 1200,
      "istr": 1201,
      "Ġwr": 1202,
      "Ġpat": 1203,
      "Ġpri": 1204,
      "Ġsk": 1205,
      "Ġseem": 1206,
      "Ġimport": 1207,
      "Ġresp": 1208,
      "ards": 1209,
      "Ġmov": 1210,
      "Ġposs": 1211,
      "Ġfriend": 1212,
      "iversity": 1213,
      "ism": 1214,
      "Ġel": 1215,
      "Ġold": 1216,
      "ird": 1217,
      "Ġstand": 1218,
      "Ġext": 1219,
      "Ġwin": 1220,
      "iving": 1221,
      "oad": 1222,
      "Ġusing": 1223,
      "ately": 1224,
      "ared": 1225,
      "ier": 1226,
      "ced": 1227,
      "Ġide": 1228,
      "ailable": 1229,
      "Ġdesign": 1230,
      "aj": 1231,
      "Ġthing": 1232,
      "ER": 1233,
      "Ġclass": 1234,
      "ĠIs": 1235,
      "ering": 1236,
      "Ġcent": 1237,
      "Ġ.": 1238,
      "Ġconf": 1239,
      "Ġhard": 1240,
      "Ġjob": 1241,
      "Ġref": 1242,
      "ĠHow": 1243,
      "Ġschool": 1244,
      "Ġcor": 1245,
      "Ġallow": 1246,
      "outh": 1247,
      "Ġproject": 1248,
      "ertain": 1249,
      "Ġturn": 1250,
      "ĠOr": 1251,
      "ccess": 1252,
      "oney": 1253,
      "uss": 1254,
      "Ġsure": 1255,
      "ety": 1256,
      "Ġwater": 1257,
      "ted": 1258,
      "Ġless": 1259,
      "âĢ¦": 1260,
      "Ġ12": 1261,
      "Ġincluding": 1262,
      "Ġint": 1263,
      "ĠOn": 1264,
      "here": 1265,
      "Ġcap": 1266,
      "Ġfull": 1267,
      "Ġbro": 1268,
      "Ġtechn": 1269,
      "ote": 1270,
      "Ġsays": 1271,
      "Ġdirect": 1272,
      "ional": 1273,
      "ohn": 1274,
      "vernment": 1275,
      "Ġ--": 1276,
      "ined": 1277,
      "Ġprocess": 1278,
      "ently": 1279,
      "Ġbuild": 1280,
      "Ġnumber": 1281,
      "pped": 1282,
      "ample": 1283,
      "gy": 1284,
      "Ġgive": 1285,
      "Ġvar": 1286,
      "Ġsol": 1287,
      "ĠGr": 1288,
      "âĢĶ": 1289,
      "ware": 1290,
      "ok": 1291,
      "Ġ[": 1292,
      "Ġtest": 1293,
      "ision": 1294,
      "Ġrece": 1295,
      "Ġdidn": 1296,
      "Ġuntil": 1297,
      ".,": 1298,
      "Ġmind": 1299,
      "Ġexpl": 1300,
      "Ġprof": 1301,
      "He": 1302,
      "ĠEx": 1303,
      "Ġplan": 1304,
      "Ġval": 1305,
      "ral": 1306,
      "Ġseason": 1307,
      "ract": 1308,
      "Ġnight": 1309,
      "rence": 1310,
      "Ġeffect": 1311,
      "Ġfamily": 1312,
      "Ġleft": 1313,
      "Ġwom": 1314,
      "Ġfour": 1315,
      "Ġ2011": 1316,
      "ĠTe": 1317,
      "Ġmat": 1318,
      "Ġavailable": 1319,
      "Ġopp": 1320,
      "Ġ20": 1321,
      "Ġhealth": 1322,
      "ably": 1323,
      "ember": 1324,
      "Ġlevel": 1325,
      "Ġlaw": 1326,
      "!!": 1327,
      "aff": 1328,
      "Ġdri": 1329,
      "Ġann": 1330,
      "mber": 1331,
      "Ġmen": 1332,
      "osed": 1333,
      "ĠBe": 1334,
      "els": 1335,
      "ĠComm": 1336,
      "iting": 1337,
      "Ġ2013": 1338,
      "ission": 1339,
      "Ġtalk": 1340,
      "Ġtoday": 1341,
      "ĠChrist": 1342,
      "ley": 1343,
      "ats": 1344,
      "Ġty": 1345,
      "oard": 1346,
      "inal": 1347,
      "att": 1348,
      "Ġcourse": 1349,
      "Ġpower": 1350,
      "Ġdays": 1351,
      "ĠMay": 1352,
      "Ġ18": 1353,
      "Ġbas": 1354,
      "Ġkind": 1355,
      "by": 1356,
      "ott": 1357,
      "ĠAt": 1358,
      "AT": 1359,
      "augh": 1360,
      "Ġdr": 1361,
      "Ġword": 1362,
      "Ġtell": 1363,
      "Ġcurrent": 1364,
      "Ġaway": 1365,
      "Ġwhy": 1366,
      "Ġcalled": 1367,
      "ling": 1368,
      "Ġorgan": 1369,
      "If": 1370,
      "Ġpos": 1371,
      "ĠPl": 1372,
      "Ġphot": 1373,
      "Ġpast": 1374,
      "Ġhop": 1375,
      "ik": 1376,
      "ĠTr": 1377,
      "Ġprev": 1378,
      "Ġimportant": 1379,
      "ĠJohn": 1380,
      "Ġ15": 1381,
      "ploy": 1382,
      "ĠCon": 1383,
      "IN": 1384,
      "Ġsit": 1385,
      "ĠPh": 1386,
      "Ġorder": 1387,
      "10": 1388,
      "Ġsite": 1389,
      "ĠQ": 1390,
      "Ġable": 1391,
      "uro": 1392,
      "Ġunderstand": 1393,
      "ready": 1394,
      "ior": 1395,
      "ple": 1396,
      "aint": 1397,
      "gin": 1398,
      "ĠAmerican": 1399,
      "ains": 1400,
      "ency": 1401,
      "SA": 1402,
      "Ġbre": 1403,
      "ised": 1404,
      "Ġ199": 1405,
      "Ġhum": 1406,
      "ĠCol": 1407,
      "med": 1408,
      "Ġblog": 1409,
      "ON": 1410,
      "ained": 1411,
      "Ġcase": 1412,
      "ocial": 1413,
      "Ġproduct": 1414,
      "Ġcamp": 1415,
      "ording": 1416,
      "ama": 1417,
      "Ġwent": 1418,
      "pend": 1419,
      "ĠGod": 1420,
      "Ġfood": 1421,
      "Ġprom": 1422,
      "lection": 1423,
      "ption": 1424,
      "enn": 1425,
      "Ġhour": 1426,
      "Ġdem": 1427,
      "oint": 1428,
      "Ġmaking": 1429,
      "Ġbeh": 1430,
      "ograp": 1431,
      "ium": 1432,
      "uff": 1433,
      "ĠMar": 1434,
      "Ġincre": 1435,
      "eng": 1436,
      "eting": 1437,
      "orth": 1438,
      "Ġdone": 1439,
      "Ġdoesn": 1440,
      "Ġtreat": 1441,
      "Ġpop": 1442,
      "me": 1443,
      "conom": 1444,
      "ĠSc": 1445,
      "ead": 1446,
      "Ġpay": 1447,
      "aps": 1448,
      "Ġhaving": 1449,
      "arent": 1450,
      "ball": 1451,
      "ajor": 1452,
      "ruct": 1453,
      "ases": 1454,
      "Ġview": 1455,
      "Ġdoing": 1456,
      "ality": 1457,
      "Ġchange": 1458,
      "'ll": 1459,
      "alf": 1460,
      "Ġperform": 1461,
      "Ġroom": 1462,
      "ĠâĢĺ": 1463,
      "Ġtimes": 1464,
      "Ġmanag": 1465,
      "ĠZ": 1466,
      "Ġever": 1467,
      "ubl": 1468,
      "ĠWhat": 1469,
      "work": 1470,
      "Ġenough": 1471,
      "ids": 1472,
      "ike": 1473,
      "Ġest": 1474,
      "Ġrese": 1475,
      "rol": 1476,
      "ider": 1477,
      "Ġalready": 1478,
      "Ġmean": 1479,
      "ES": 1480,
      "Ġcame": 1481,
      "Ġleg": 1482,
      "ode": 1483,
      "Ġgovernment": 1484,
      "Ġair": 1485,
      "Ġnews": 1486,
      "Ġservice": 1487,
      "Ġcheck": 1488,
      "tend": 1489,
      "Ġline": 1490,
      "ĠNo": 1491,
      "Ġtoget": 1492,
      "Ġmillion": 1493,
      "Ġconst": 1494,
      "iven": 1495,
      "Ġtogether": 1496,
      "ured": 1497,
      "isc": 1498,
      "pping": 1499,
      "une": 1500,
      "Ġthought": 1501,
      "Ġve": 1502,
      "ĠSp": 1503,
      "Ġchang": 1504,
      "Ġlarge": 1505,
      "err": 1506,
      "Ġcity": 1507,
      "Ġdi": 1508,
      "ories": 1509,
      "ury": 1510,
      "ivid": 1511,
      "Ġchildren": 1512,
      "Ġothers": 1513,
      "Ġmus": 1514,
      "Ġpresent": 1515,
      "ived": 1516,
      "ither": 1517,
      "Ġarea": 1518,
      "ĠUniversity": 1519,
      "Ġexperience": 1520,
      "iron": 1521,
      "aring": 1522,
      "Ġoften": 1523,
      "ĠInd": 1524,
      "Ġname": 1525,
      "Ġaccess": 1526,
      "Ġcountry": 1527,
      "Ġaff": 1528,
      "Ġnear": 1529,
      "Ġworking": 1530,
      "min": 1531,
      "Ġdist": 1532,
      "ober": 1533,
      "Ġside": 1534,
      "ĠFl": 1535,
      "30": 1536,
      "ream": 1537,
      "ified": 1538,
      "ĠRep": 1539,
      "Ġsal": 1540,
      "ĠWhen": 1541,
      "ĠRes": 1542,
      "Ġoper": 1543,
      "ustom": 1544,
      "Ġmar": 1545,
      "Ġgetting": 1546,
      "Ġlight": 1547,
      "ator": 1548,
      "most": 1549,
      "ĠBr": 1550,
      "Ġbit": 1551,
      "Ġdata": 1552,
      "Ġequ": 1553,
      "Ġfar": 1554,
      "Ġoffic": 1555,
      "You": 1556,
      "ww": 1557,
      "icle": 1558,
      "Ġexpect": 1559,
      "Ġlearn": 1560,
      "ĠTo": 1561,
      "ries": 1562,
      "Ġdeal": 1563,
      "St": 1564,
      "Ġsing": 1565,
      "Ġfac": 1566,
      "ane": 1567,
      "Ġcost": 1568,
      "Ġwithin": 1569,
      "Ġleast": 1570,
      "Ġlooking": 1571,
      "Ġmoney": 1572,
      "Ġmembers": 1573,
      "Ġhist": 1574,
      "ĠCent": 1575,
      "Ġsuccess": 1576,
      "Ġlive": 1577,
      "Ġtook": 1578,
      "50": 1579,
      "Ġproper": 1580,
      "ization": 1581,
      "12": 1582,
      "Ġwrit": 1583,
      "urity": 1584,
      "ina": 1585,
      "eb": 1586,
      "ones": 1587,
      "Ġgrow": 1588,
      "Ġrecord": 1589,
      "ump": 1590,
      "Ġstudents": 1591,
      "Ġwon": 1592,
      "utes": 1593,
      "Ġeng": 1594,
      "part": 1595,
      "nect": 1596,
      "Ġpage": 1597,
      "aim": 1598,
      "Ġbecome": 1599,
      "por": 1600,
      "Ġmil": 1601,
      "let": 1602,
      "Ġsever": 1603,
      "Ġstory": 1604,
      "uly": 1605,
      "\".": 1606,
      "AN": 1607,
      "use": 1608,
      "Ġterm": 1609,
      "Ġ|": 1610,
      "Ġsw": 1611,
      "Ġes": 1612,
      "Ġyet": 1613,
      "Ġalong": 1614,
      "Ġ2010": 1615,
      "ĠEuro": 1616,
      "Ġpract": 1617,
      "uthor": 1618,
      "Ġcertain": 1619,
      "ĠWor": 1620,
      "Ġanything": 1621,
      "Ġpercent": 1622,
      "Ġhappen": 1623,
      "Ġvide": 1624,
      "Ġquestion": 1625,
      "Ġevent": 1626,
      "aut": 1627,
      "Ġseveral": 1628,
      "ĠMan": 1629,
      "osp": 1630,
      "ged": 1631,
      "avor": 1632,
      "iqu": 1633,
      "Ġinvest": 1634,
      "ides": 1635,
      "Ġwebs": 1636,
      "ands": 1637,
      "Ġshort": 1638,
      "omm": 1639,
      "Ġ11": 1640,
      "not": 1641,
      "side": 1642,
      "ĠCan": 1643,
      "urs": 1644,
      "ush": 1645,
      "Ġbelieve": 1646,
      "Ġocc": 1647,
      "Ġpolit": 1648,
      "ony": 1649,
      "ney": 1650,
      "ĠMy": 1651,
      "Ġcomplete": 1652,
      "ĠState": 1653,
      "Ġago": 1654,
      "ison": 1655,
      "Ġpie": 1656,
      "Ġtold": 1657,
      "ourn": 1658,
      "ched": 1659,
      "Ġmakes": 1660,
      "Ġyoung": 1661,
      "Ġcommunity": 1662,
      "Ġreason": 1663,
      "Ġactually": 1664,
      "ising": 1665,
      "Ġmove": 1666,
      "Ġdra": 1667,
      "Ġprovide": 1668,
      "itions": 1669,
      "Ġnon": 1670,
      "ĠCar": 1671,
      "ĠYork": 1672,
      "ograph": 1673,
      "ows": 1674,
      "Ġcompany": 1675,
      "ST": 1676,
      "Ġonce": 1677,
      "irl": 1678,
      "20": 1679,
      "Ġben": 1680,
      "Ġprote": 1681,
      "Ġ30": 1682,
      "Ġaddition": 1683,
      "ern": 1684,
      "ery": 1685,
      "ĠSy": 1686,
      "As": 1687,
      "aper": 1688,
      "Ġstarted": 1689,
      "What": 1690,
      "app": 1691,
      "Ġeconom": 1692,
      "used": 1693,
      "ials": 1694,
      "of": 1695,
      "Ġtem": 1696,
      "11": 1697,
      "Ġpar": 1698,
      "Ġfollowing": 1699,
      ".)": 1700,
      "Ġlim": 1701,
      "ĠApp": 1702,
      "ails": 1703,
      "ĠEurope": 1704,
      "ron": 1705,
      "ĠOb": 1706,
      "Ġlocal": 1707,
      "over": 1708,
      "tt": 1709,
      "ĠMed": 1710,
      "Ġmeans": 1711,
      "acy": 1712,
      "ination": 1713,
      "ability": 1714,
      "Ġreturn": 1715,
      "rop": 1716,
      "crib": 1717,
      "idd": 1718,
      "Ġtaking": 1719,
      "Ġmajor": 1720,
      "Ġappear": 1721,
      "Ġcompl": 1722,
      "EN": 1723,
      "Ġwa": 1724,
      "Ġintern": 1725,
      "Ġseen": 1726,
      "Ġsomeone": 1727,
      "Ġearly": 1728,
      "ored": 1729,
      "Ġclear": 1730,
      "for": 1731,
      "Ġdiscuss": 1732,
      "Ġaccount": 1733,
      "viron": 1734,
      "Ġtry": 1735,
      "Ġelect": 1736,
      "Ġfore": 1737,
      "uture": 1738,
      "Ġcustom": 1739,
      "arr": 1740,
      "ances": 1741,
      "Ġlater": 1742,
      "ĠAss": 1743,
      "Ġonline": 1744,
      "ĠPr": 1745,
      "An": 1746,
      "Ġorig": 1747,
      "Ġwhether": 1748,
      "Ġspecial": 1749,
      "ĠEng": 1750,
      "fect": 1751,
      "Ġmor": 1752,
      "So": 1753,
      "joy": 1754,
      "ully": 1755,
      "ividual": 1756,
      "Ġsocial": 1757,
      "Ġeduc": 1758,
      "And": 1759,
      "aster": 1760,
      "iously": 1761,
      "Ġactiv": 1762,
      "Ġpossible": 1763,
      "oice": 1764,
      "ients": 1765,
      "Ġfive": 1766,
      "selves": 1767,
      "ians": 1768,
      "Ġra": 1769,
      "Ġmom": 1770,
      "Ġhold": 1771,
      "ĠUnited": 1772,
      "Ġmonths": 1773,
      "Ġdeb": 1774,
      "wh": 1775,
      "load": 1776,
      "Ġce": 1777,
      "ument": 1778,
      "Ġimpro": 1779,
      "AR": 1780,
      "Ġdev": 1781,
      "sh": 1782,
      "Ġ/": 1783,
      "icult": 1784,
      "book": 1785,
      "Ġhalf": 1786,
      "Ġnet": 1787,
      "Ġtrad": 1788,
      "aken": 1789,
      "Ġapplic": 1790,
      "atic": 1791,
      "ĠAm": 1792,
      "ĠIntern": 1793,
      "Ġcond": 1794,
      "There": 1795,
      "Ġfield": 1796,
      "Ġpot": 1797,
      "iday": 1798,
      "ĠX": 1799,
      "inc": 1800,
      "Ġalmost": 1801,
      "Ġbody": 1802,
      "ĠSec": 1803,
      "Ġfilm": 1804,
      "wards": 1805,
      "Ġaddress": 1806,
      "Ġinvol": 1807,
      "itive": 1808,
      "Ġcut": 1809,
      "ister": 1810,
      "Ġrele": 1811,
      "ĠCo": 1812,
      "Ġwhole": 1813,
      "Ġbring": 1814,
      "But": 1815,
      "orts": 1816,
      "Ġhit": 1817,
      "ilar": 1818,
      "ource": 1819,
      "Ġvers": 1820,
      "Ġgiven": 1821,
      "ided": 1822,
      "ĠPres": 1823,
      "Ġprob": 1824,
      "201": 1825,
      "ĠCount": 1826,
      "ources": 1827,
      "ler": 1828,
      "Ġpress": 1829,
      "ĠBro": 1830,
      "ĠWith": 1831,
      "Ġprofess": 1832,
      "ĠCity": 1833,
      "Ġtre": 1834,
      "Ġ14": 1835,
      "ĠUS": 1836,
      "ference": 1837,
      "Ġinclude": 1838,
      "ches": 1839,
      "oon": 1840,
      "Ġtax": 1841,
      "Ġcomes": 1842,
      "Ġknown": 1843,
      "Ġmater": 1844,
      "ĠSouth": 1845,
      "ĠDo": 1846,
      "Ġquick": 1847,
      "Ġemploy": 1848,
      "eral": 1849,
      "itor": 1850,
      "Ġfre": 1851,
      "Ġwebsite": 1852,
      "Ġheart": 1853,
      "ĠWorld": 1854,
      "rew": 1855,
      "Ġservices": 1856,
      "rie": 1857,
      "Ġelse": 1858,
      "ached": 1859,
      "Ġcontrol": 1860,
      "cially": 1861,
      "Ġgames": 1862,
      "Ġexample": 1863,
      "Ġpret": 1864,
      "Ġparticular": 1865,
      "vironment": 1866,
      "Ġdiff": 1867,
      "ĠAf": 1868,
      "ĠCal": 1869,
      "Ġasked": 1870,
      "ills": 1871,
      "ĠOct": 1872,
      "15": 1873,
      "Ġindividual": 1874,
      "Ġwomen": 1875,
      "Ġwalk": 1876,
      "ify": 1877,
      "pro": 1878,
      "Ġfuture": 1879,
      "ensive": 1880,
      "Ġ2008": 1881,
      "ĠMc": 1882,
      "For": 1883,
      "Ġ13": 1884,
      "Ġclose": 1885,
      "Ġcharac": 1886,
      "OR": 1887,
      "sw": 1888,
      "unch": 1889,
      "Ġtra": 1890,
      "ĠÂ": 1891,
      "Ġ16": 1892,
      "Ġpersonal": 1893,
      "ĠAmerica": 1894,
      "ague": 1895,
      "Ġamong": 1896,
      "Ġfriends": 1897,
      "fort": 1898,
      "ai": 1899,
      "Ġbegin": 1900,
      "Ġfeat": 1901,
      "Ġsent": 1902,
      "Ġfall": 1903,
      "Ġcomb": 1904,
      "Ġsoft": 1905,
      "Ġpretty": 1906,
      "verage": 1907,
      "Ġworks": 1908,
      "Ġneeds": 1909,
      "ges": 1910,
      "Ġthird": 1911,
      "ĠStates": 1912,
      "light": 1913,
      "Ġfund": 1914,
      "Ġhouse": 1915,
      "ĠSu": 1916,
      "Ġindust": 1917,
      "Ġhours": 1918,
      "Ġresearch": 1919,
      "Ġeasy": 1920,
      "urch": 1921,
      "IT": 1922,
      "Ġ17": 1923,
      "Ġnothing": 1924,
      "ĠJan": 1925,
      "'d": 1926,
      "Ġtrying": 1927,
      "Ġwanted": 1928,
      "Ġsix": 1929,
      "Ġwond": 1930,
      "Ġopt": 1931,
      "Ġeither": 1932,
      "Ġisn": 1933,
      "lement": 1934,
      "Ġseries": 1935,
      "Ġmarket": 1936,
      "par": 1937,
      "Ġz": 1938,
      "Ġcoup": 1939,
      "Ġpick": 1940,
      "Ġtot": 1941,
      "ulation": 1942,
      "Ġsum": 1943,
      "Ġenjoy": 1944,
      "sy": 1945,
      "Ġfoc": 1946,
      "ĠSte": 1947,
      "ĠMr": 1948,
      "Ġconnect": 1949,
      "ĠNational": 1950,
      "Ġpack": 1951,
      "icy": 1952,
      "hers": 1953,
      "go": 1954,
      "lish": 1955,
      "my": 1956,
      "though": 1957,
      "Ġshare": 1958,
      "Ġmain": 1959,
      "Ġhot": 1960,
      "Ġet": 1961,
      "Ġconcer": 1962,
      "Ġvol": 1963,
      "ene": 1964,
      "Ġca": 1965,
      "ĠTw": 1966,
      "ilt": 1967,
      "Ġjo": 1968,
      "Ġminutes": 1969,
      "Ġey": 1970,
      "Ġcreate": 1971,
      "org": 1972,
      "ĠPe": 1973,
      "ĠOff": 1974,
      "Ġbad": 1975,
      "Ġbased": 1976,
      "anks": 1977,
      "Ġpriv": 1978,
      "ĠNot": 1979,
      "pril": 1980,
      "Ġmedia": 1981,
      "200": 1982,
      "Ġmult": 1983,
      "ĠMe": 1984,
      "ĠOne": 1985,
      "Ġpubl": 1986,
      "ots": 1987,
      "Ġquite": 1988,
      "Ġeveryone": 1989,
      "lf": 1990,
      "Ġlow": 1991,
      "atural": 1992,
      "Ġred": 1993,
      "On": 1994,
      "unic": 1995,
      "Ġfavor": 1996,
      "ounds": 1997,
      "Ġoffer": 1998,
      "ential": 1999,
      "ilities": 2000,
      "Ġissues": 2001,
      "cri": 2002,
      "right": 2003,
      "âĢĵ": 2004,
      "Ġ24": 2005,
      "elt": 2006,
      "ners": 2007,
      "Ġface": 2008,
      "irt": 2009,
      "resent": 2010,
      "Ġopport": 2011,
      "Ġcreat": 2012,
      "lu": 2013,
      "angu": 2014,
      "Ġacross": 2015,
      "Ġvisit": 2016,
      "iod": 2017,
      "Ġmess": 2018,
      "Ġclaim": 2019,
      "Ġbenef": 2020,
      "Ġcoming": 2021,
      "pecially": 2022,
      "Ġemail": 2023,
      "Ġdevelopment": 2024,
      "Ġissue": 2025,
      "Ġmusic": 2026,
      "illed": 2027,
      "pos": 2028,
      "Ġentire": 2029,
      "reet": 2030,
      "opy": 2031,
      "Ġwatch": 2032,
      "ĠServ": 2033,
      "aces": 2034,
      "ĠRet": 2035,
      "Ġmiss": 2036,
      "Ġquestions": 2037,
      "Ġidea": 2038,
      "Ġhig": 2039,
      "umb": 2040,
      "abor": 2041,
      "ggest": 2042,
      "ĠObama": 2043,
      "ued": 2044,
      "itten": 2045,
      "itch": 2046,
      "Ġreview": 2047,
      "ĠDr": 2048,
      "Ġvideo": 2049,
      "When": 2050,
      "yle": 2051,
      "ashing": 2052,
      "Ġstrong": 2053,
      "Ġhuman": 2054,
      "itting": 2055,
      "Ġ2009": 2056,
      "Ġris": 2057,
      "oor": 2058,
      "Ġident": 2059,
      "Ġprobably": 2060,
      "ape": 2061,
      "ĠWill": 2062,
      "Ġspecific": 2063,
      "duct": 2064,
      "Ġmatter": 2065,
      "ĠPM": 2066,
      "Ġkey": 2067,
      "Ġhope": 2068,
      "Ġbelow": 2069,
      "back": 2070,
      "Ġdou": 2071,
      "ried": 2072,
      "ences": 2073,
      "Ġcult": 2074,
      "lling": 2075,
      "Ġeverything": 2076,
      "Ġsecurity": 2077,
      "Ch": 2078,
      "lege": 2079,
      "empt": 2080,
      "Ġparticip": 2081,
      "Ġaut": 2082,
      "Ġauthor": 2083,
      "off": 2084,
      "ule": 2085,
      "ask": 2086,
      "aid": 2087,
      "Ġtrue": 2088,
      "nes": 2089,
      "lebr": 2090,
      "Ġitem": 2091,
      "idence": 2092,
      "ĠAfter": 2093,
      "Ġenc": 2094,
      "Ġ25": 2095,
      "Ġwords": 2096,
      "ED": 2097,
      "Ġage": 2098,
      "Ġcook": 2099,
      "Ġsex": 2100,
      "Ġsuggest": 2101,
      "Ġperfect": 2102,
      "Ġarticle": 2103,
      "ĠCour": 2104,
      "ĠThese": 2105,
      "aching": 2106,
      "ply": 2107,
      "ams": 2108,
      "udd": 2109,
      "Ġsingle": 2110,
      "now": 2111,
      "Ġplease": 2112,
      "Ġplayers": 2113,
      "Ġstay": 2114,
      "Ġconsider": 2115,
      "Ġanal": 2116,
      "Ġexist": 2117,
      "ibility": 2118,
      "ples": 2119,
      "ovember": 2120,
      "Ġpict": 2121,
      "Ġrather": 2122,
      "ster": 2123,
      "irm": 2124,
      "itted": 2125,
      "urther": 2126,
      "Ġsuper": 2127,
      "Ġfront": 2128,
      "Ġdifficult": 2129,
      "Ġhost": 2130,
      "Ġmember": 2131,
      "Ġhistory": 2132,
      "ĠAfric": 2133,
      "ging": 2134,
      "ring": 2135,
      "uation": 2136,
      "irc": 2137,
      "ĠJust": 2138,
      "Ġcontact": 2139,
      "Ġexc": 2140,
      "ournal": 2141,
      "uary": 2142,
      "oose": 2143,
      "Ġabove": 2144,
      "Ġproblems": 2145,
      "Ġbreak": 2146,
      "ole": 2147,
      "Ġener": 2148,
      "Ġcrit": 2149,
      "ateg": 2150,
      "Ġgirl": 2151,
      "Ġannoun": 2152,
      "Ġmag": 2153,
      "Ġlate": 2154,
      "ĠJune": 2155,
      "Ġsaw": 2156,
      "//": 2157,
      "ctor": 2158,
      "Ġstep": 2159,
      "ĠHis": 2160,
      "Ġphys": 2161,
      "Ġtyp": 2162,
      "af": 2163,
      "Ġaud": 2164,
      "ĠGu": 2165,
      "Ġbehind": 2166,
      "inks": 2167,
      "ĠGe": 2168,
      "ha": 2169,
      "ament": 2170,
      "Ġblack": 2171,
      "Ġtaken": 2172,
      "nding": 2173,
      "ĠNow": 2174,
      "Ġlink": 2175,
      "ĠCont": 2176,
      "Ġcouple": 2177,
      "ledge": 2178,
      "ique": 2179,
      "ttp": 2180,
      "ĠSci": 2181,
      "ators": 2182,
      "icro": 2183,
      "ĠApril": 2184,
      "Ġanyone": 2185,
      "fer": 2186,
      "Ġ...": 2187,
      "Ġcompet": 2188,
      "Ġresults": 2189,
      "ĠCounty": 2190,
      "Ġwar": 2191,
      "Ġtool": 2192,
      "ips": 2193,
      "Ġrecent": 2194,
      "Ġneeded": 2195,
      "ev": 2196,
      "ially": 2197,
      "ining": 2198,
      "stit": 2199,
      "Ġrepl": 2200,
      "ĠEn": 2201,
      "Ġnecess": 2202,
      "Ġarg": 2203,
      "Ġcontent": 2204,
      "Ġperiod": 2205,
      "Ġseems": 2206,
      "ĠFeb": 2207,
      "Ġchall": 2208,
      "://": 2209,
      "ĠMarch": 2210,
      "AC": 2211,
      "hod": 2212,
      "ĠEd": 2213,
      "13": 2214,
      "Ġrequire": 2215,
      "ĠPresident": 2216,
      "hib": 2217,
      "ĠTH": 2218,
      "uter": 2219,
      "Ġweb": 2220,
      "ĠEm": 2221,
      "Ġrespect": 2222,
      "ĠOctober": 2223,
      "Ġ#": 2224,
      "pper": 2225,
      "Ġsimilar": 2226,
      "Ġpain": 2227,
      "Ġnice": 2228,
      "Ġant": 2229,
      "Ġstudy": 2230,
      "Ġsaying": 2231,
      "Ġcontinue": 2232,
      "__": 2233,
      "reg": 2234,
      "Ġtraining": 2235,
      "Ġupd": 2236,
      "Ġpoints": 2237,
      "ze": 2238,
      "Ġwind": 2239,
      "ese": 2240,
      "Ġgeneral": 2241,
      "Ġespecially": 2242,
      "Ġtou": 2243,
      "ĠAb": 2244,
      "Ġstop": 2245,
      "arter": 2246,
      "ĠAust": 2247,
      "Ġformer": 2248,
      "Ġenvironment": 2249,
      "ĠHowever": 2250,
      "Ġsense": 2251,
      "ules": 2252,
      "ural": 2253,
      "Ġ2007": 2254,
      "Ġpurch": 2255,
      "Ġrespons": 2256,
      "Ġweeks": 2257,
      "ĠComp": 2258,
      "ille": 2259,
      "ĠBy": 2260,
      "Ġsoon": 2261,
      "RE": 2262,
      "ĠMore": 2263,
      "Ġbuilding": 2264,
      "Ġdig": 2265,
      "ĠAug": 2266,
      "play": 2267,
      "18": 2268,
      "Ġfire": 2269,
      "Ġland": 2270,
      "imate": 2271,
      "Ġreading": 2272,
      "Ġtravel": 2273,
      "ĠSpr": 2274,
      "aged": 2275,
      "Ġcommon": 2276,
      "Ġrelations": 2277,
      "Re": 2278,
      "Ġparent": 2279,
      "Ġstaff": 2280,
      "Ġport": 2281,
      "Ġstuff": 2282,
      "Ġanim": 2283,
      "ribut": 2284,
      "Ġhom": 2285,
      "Ġheld": 2286,
      "ĠPart": 2287,
      "Ġproduc": 2288,
      "gest": 2289,
      "year": 2290,
      "oud": 2291,
      "Ġvot": 2292,
      "Ġrunning": 2293,
      "Ġsubject": 2294,
      "eds": 2295,
      "Ġlat": 2296,
      "Ġbeaut": 2297,
      "ĠMin": 2298,
      "ĠBar": 2299,
      "ĠNorth": 2300,
      "ocr": 2301,
      "Ġfinal": 2302,
      "14": 2303,
      "aur": 2304,
      "Ġdoc": 2305,
      "ĠNovember": 2306,
      "Ġupon": 2307,
      "ĠAssoci": 2308,
      "Ġenergy": 2309,
      "Al": 2310,
      "Ġ:": 2311,
      "Ġself": 2312,
      "ĠAct": 2313,
      "Ġrad": 2314,
      "Ġrepresent": 2315,
      "Ġvari": 2316,
      "Ġdue": 2317,
      "ĠAg": 2318,
      "Ġwasn": 2319,
      "Ġaccording": 2320,
      "Ġaccept": 2321,
      "Ġball": 2322,
      "resh": 2323,
      "Ġcompan": 2324,
      "Ġscreen": 2325,
      "Ġpolitical": 2326,
      "Ġsong": 2327,
      "Ġnatural": 2328,
      "room": 2329,
      "Ġdeath": 2330,
      "yn": 2331,
      "Ġlost": 2332,
      "Ġstore": 2333,
      "ief": 2334,
      "Ġlikely": 2335,
      "Ġadded": 2336,
      "come": 2337,
      "ĠDep": 2338,
      "Ġ100": 2339,
      "Ġabs": 2340,
      "Ġhowever": 2341,
      "ned": 2342,
      "ps": 2343,
      "Ġswe": 2344,
      "Ġfa": 2345,
      "Ġfail": 2346,
      "Ġrecently": 2347,
      "Ġmorning": 2348,
      "ĠIm": 2349,
      "Ġmeet": 2350,
      "ogn": 2351,
      "ashington": 2352,
      "OM": 2353,
      "cial": 2354,
      "dd": 2355,
      "olution": 2356,
      "Ġord": 2357,
      "Ġamount": 2358,
      "ministr": 2359,
      "Ġill": 2360,
      "Ġbase": 2361,
      "ana": 2362,
      "rieved": 2363,
      "OU": 2364,
      "ky": 2365,
      "oe": 2366,
      "ĠSan": 2367,
      "ift": 2368,
      "amed": 2369,
      "Ġwhite": 2370,
      "ung": 2371,
      "Ġ198": 2372,
      "Ġbo": 2373,
      "ĠSchool": 2374,
      "Ġansw": 2375,
      "ests": 2376,
      "Ġmyself": 2377,
      "Ġfight": 2378,
      "ĠWar": 2379,
      "Ġcannot": 2380,
      "Ġsimply": 2381,
      "haps": 2382,
      "oes": 2383,
      "Ġfoot": 2384,
      "Ġsearch": 2385,
      "ĠNe": 2386,
      "Ġsuff": 2387,
      "ĠRepublic": 2388,
      "IS": 2389,
      "cil": 2390,
      "Ġcup": 2391,
      "Ġste": 2392,
      "Ġtext": 2393,
      "Ġinstall": 2394,
      "ancial": 2395,
      "Ġforward": 2396,
      "ĠMich": 2397,
      "anguage": 2398,
      "iol": 2399,
      "val": 2400,
      "ĠDon": 2401,
      "mb": 2402,
      "mit": 2403,
      "ĠPol": 2404,
      "Ġ50": 2405,
      "Ġhon": 2406,
      "vert": 2407,
      "Ġrights": 2408,
      "Ġbuy": 2409,
      "Ġtrack": 2410,
      "Ġthemselves": 2411,
      "Ġspace": 2412,
      "How": 2413,
      "Ġmethod": 2414,
      "Ġgas": 2415,
      "amer": 2416,
      "ĠPer": 2417,
      "Ġkids": 2418,
      "Ġfamil": 2419,
      "Ġposition": 2420,
      "cast": 2421,
      "time": 2422,
      "ites": 2423,
      "To": 2424,
      "head": 2425,
      "asing": 2426,
      "ively": 2427,
      "aving": 2428,
      "Ġtechnology": 2429,
      "Ġtype": 2430,
      "ĠCenter": 2431,
      "itary": 2432,
      "Ġfig": 2433,
      "Ġworked": 2434,
      "ruary": 2435,
      "MA": 2436,
      "gress": 2437,
      "ĠJuly": 2438,
      "Ġoffice": 2439,
      "rug": 2440,
      "Ġdecided": 2441,
      "iter": 2442,
      "Ġgave": 2443,
      "Ġstudent": 2444,
      "ĠNews": 2445,
      "ris": 2446,
      "Ġhy": 2447,
      "ĠMark": 2448,
      "ĠPost": 2449,
      "attle": 2450,
      "Ġoutside": 2451,
      "Ġcool": 2452,
      "aign": 2453,
      "iver": 2454,
      "na": 2455,
      "ester": 2456,
      "ĠSer": 2457,
      "Ġcontract": 2458,
      "Ġplayed": 2459,
      "Ġbooks": 2460,
      "lev": 2461,
      "ĠSome": 2462,
      "ommend": 2463,
      "ĠRetrieved": 2464,
      "My": 2465,
      "uel": 2466,
      "ederal": 2467,
      "Ġstri": 2468,
      "Ġshall": 2469,
      "Ġwonder": 2470,
      "Ġri": 2471,
      "rect": 2472,
      "ession": 2473,
      "Ġprovided": 2474,
      "Ġcomment": 2475,
      "Ġspeak": 2476,
      "sc": 2477,
      "ĠHall": 2478,
      "ĠDav": 2479,
      "Ġproducts": 2480,
      "Ġ22": 2481,
      "ume": 2482,
      "Ph": 2483,
      "ĠChe": 2484,
      "aturday": 2485,
      "ĠCourt": 2486,
      "AL": 2487,
      "apan": 2488,
      "Ġsimple": 2489,
      "Ġvalue": 2490,
      "ĠQu": 2491,
      "Ġhttp": 2492,
      "Ġparty": 2493,
      "ishing": 2494,
      "lt": 2495,
      "ration": 2496,
      "Ġconv": 2497,
      "Ġmeas": 2498,
      "Ġ40": 2499,
      "Ġvarious": 2500,
      "ĠCalif": 2501,
      "aily": 2502,
      "itter": 2503,
      "Ġpaper": 2504,
      "Ġdest": 2505,
      "onday": 2506,
      "Ġprint": 2507,
      "iet": 2508,
      "Ġsqu": 2509,
      "Ġfurther": 2510,
      "ĠTSA": 2511,
      "Ġdeg": 2512,
      "Ġchance": 2513,
      "Ġleave": 2514,
      "Ġdraw": 2515,
      "Ġversion": 2516,
      "Ġfocus": 2517,
      "Ġetc": 2518,
      "Ġbar": 2519,
      "rote": 2520,
      "ĠHouse": 2521,
      "raft": 2522,
      "overed": 2523,
      "oved": 2524,
      "Ġcolor": 2525,
      "Ġchanges": 2526,
      "Ġcharacter": 2527,
      "Ġaction": 2528,
      "Ġways": 2529,
      "Ġselect": 2530,
      "ĠDes": 2531,
      "ĠStud": 2532,
      "ociety": 2533,
      "iddle": 2534,
      "Ġcelebr": 2535,
      "aced": 2536,
      "ables": 2537,
      "ĠGl": 2538,
      "Ġinde": 2539,
      "Ġindustry": 2540,
      "Ġtakes": 2541,
      "Ġgets": 2542,
      "Ġevents": 2543,
      "Ġattack": 2544,
      "ees": 2545,
      "Ġcred": 2546,
      "Ġmot": 2547,
      "ĠRec": 2548,
      "ĠYour": 2549,
      "----": 2550,
      "de": 2551,
      "gle": 2552,
      "Ġcoun": 2553,
      "Ġnational": 2554,
      "irit": 2555,
      "ĠPal": 2556,
      "Ġdeep": 2557,
      "Ġdescrib": 2558,
      "Ġestab": 2559,
      "Ġoriginal": 2560,
      "ires": 2561,
      "oid": 2562,
      "Ġcirc": 2563,
      "Ġlog": 2564,
      "ĠSm": 2565,
      "Ġlives": 2566,
      "Ġusually": 2567,
      "ification": 2568,
      "Ġreceived": 2569,
      "Ġbott": 2570,
      "ĠWashington": 2571,
      "Ġ28": 2572,
      "Ġattempt": 2573,
      "Ġnetwork": 2574,
      "ID": 2575,
      "Ġinside": 2576,
      "Ġrequired": 2577,
      "IC": 2578,
      "key": 2579,
      "Ġsoftware": 2580,
      "Ġtour": 2581,
      "Ġstat": 2582,
      "kend": 2583,
      "Ġareas": 2584,
      "Ġdeli": 2585,
      "action": 2586,
      "obile": 2587,
      "Ġ197": 2588,
      "Ġrole": 2589,
      "Ġdeterm": 2590,
      "co": 2591,
      "fully": 2592,
      "Ġcard": 2593,
      "Ġwritten": 2594,
      "17": 2595,
      "Ġpresident": 2596,
      "Ġshows": 2597,
      "ĠSept": 2598,
      "Ġprotect": 2599,
      "Ġcompanies": 2600,
      "25": 2601,
      "cell": 2602,
      "Ġquality": 2603,
      "Ġinflu": 2604,
      "ĠJanuary": 2605,
      "pri": 2606,
      "ales": 2607,
      "ayer": 2608,
      "Ġdefe": 2609,
      "ĠGo": 2610,
      "Ġjud": 2611,
      "Ġmeeting": 2612,
      "Ġlooks": 2613,
      "Ġlonger": 2614,
      "bor": 2615,
      "ĠPark": 2616,
      "ubb": 2617,
      "Ġroad": 2618,
      "That": 2619,
      "rows": 2620,
      "Ġinstead": 2621,
      "Ġproperty": 2622,
      "OT": 2623,
      "Ġx": 2624,
      "atory": 2625,
      "lear": 2626,
      "Ġimprove": 2627,
      "Ġinj": 2628,
      "icated": 2629,
      "Ġnorm": 2630,
      "ude": 2631,
      "Ġplayer": 2632,
      "Ġassist": 2633,
      "medi": 2634,
      "16": 2635,
      "Ġbegan": 2636,
      "ĠHer": 2637,
      "Ġexam": 2638,
      "Ġagre": 2639,
      "Ġprice": 2640,
      "Ġcreated": 2641,
      "Ġdam": 2642,
      "Ġla": 2643,
      "urt": 2644,
      "Ġimm": 2645,
      "Ġsound": 2646,
      "ades": 2647,
      "ĠPar": 2648,
      "Ġcoll": 2649,
      "Ġcover": 2650,
      "Ġpolicy": 2651,
      "Ġhosp": 2652,
      "Ġliving": 2653,
      "Ġheard": 2654,
      "cember": 2655,
      "ops": 2656,
      "ought": 2657,
      "ecause": 2658,
      "Ġhimself": 2659,
      "ornia": 2660,
      "Ġwrong": 2661,
      "Ġtotal": 2662,
      "Ġnature": 2663,
      "eter": 2664,
      "ĠDay": 2665,
      "Ġbecame": 2666,
      "Ġplaying": 2667,
      "Ġincludes": 2668,
      "ING": 2669,
      "aging": 2670,
      "....": 2671,
      "Ġobject": 2672,
      "Ġbox": 2673,
      "ights": 2674,
      "Ġteac": 2675,
      "Ġens": 2676,
      "Ġremember": 2677,
      "like": 2678,
      "Ġinit": 2679,
      "adem": 2680,
      "ruction": 2681,
      "ificant": 2682,
      "ĠAugust": 2683,
      "body": 2684,
      "Ġdom": 2685,
      "Ġhear": 2686,
      "Ġrecommend": 2687,
      "Ġground": 2688,
      "Ġcause": 2689,
      "Ġdead": 2690,
      "oph": 2691,
      "Ġgoes": 2692,
      "Ġcareer": 2693,
      "Ġmoment": 2694,
      "iment": 2695,
      "irth": 2696,
      "hern": 2697,
      "Ġexact": 2698,
      "Ġprim": 2699,
      "ological": 2700,
      "istrict": 2701,
      "Ġeducation": 2702,
      "Ġprep": 2703,
      "Ġcollect": 2704,
      "Ġregard": 2705,
      "clus": 2706,
      "ĠArt": 2707,
      "Ġhigher": 2708,
      "Ġrelationship": 2709,
      "ĠAng": 2710,
      "Ġsend": 2711,
      "Ġknowledge": 2712,
      "Ġprivate": 2713,
      "60": 2714,
      "Ġcases": 2715,
      "lex": 2716,
      "Ġattend": 2717,
      "Ġwriting": 2718,
      "**": 2719,
      "king": 2720,
      "Ġcal": 2721,
      "Ġbag": 2722,
      "well": 2723,
      "onse": 2724,
      "Ġoil": 2725,
      "itional": 2726,
      "Ġblood": 2727,
      "iam": 2728,
      "where": 2729,
      "iff": 2730,
      "ĠJapan": 2731,
      "Sh": 2732,
      "Ġfem": 2733,
      "Ġdel": 2734,
      "Ġgoal": 2735,
      "AS": 2736,
      "uge": 2737,
      "Ġcand": 2738,
      "unities": 2739,
      "Ġexcept": 2740,
      "apt": 2741,
      "Ġusers": 2742,
      "Ġpopular": 2743,
      "Ġwrote": 2744,
      "Ġpers": 2745,
      "iple": 2746,
      "Ġthinking": 2747,
      "Ġdecision": 2748,
      "ĠBlack": 2749,
      "ĠCanad": 2750,
      "Ġfavorite": 2751,
      "ĠCalifornia": 2752,
      "Ġsize": 2753,
      "atever": 2754,
      "Ġregular": 2755,
      "Ġprograms": 2756,
      "All": 2757,
      "Ġbab": 2758,
      "ĠNet": 2759,
      "Ġdefin": 2760,
      "sych": 2761,
      "ael": 2762,
      "Ġfeatures": 2763,
      "reme": 2764,
      "Ġcomments": 2765,
      "ĠChar": 2766,
      "Ġturned": 2767,
      "atives": 2768,
      "Ġinn": 2769,
      "urb": 2770,
      "ĠBrit": 2771,
      "lier": 2772,
      "Ġpractice": 2773,
      "Ġpull": 2774,
      "asons": 2775,
      "idge": 2776,
      "Ġbecom": 2777,
      "Ġrecogn": 2778,
      "Ġsurpr": 2779,
      "ĠFebruary": 2780,
      "aul": 2781,
      "ĠVal": 2782,
      "Ġquickly": 2783,
      "ĠCor": 2784,
      "Ġsepar": 2785,
      "Ġworth": 2786,
      "obal": 2787,
      "unday": 2788,
      "inary": 2789,
      "Ġfunction": 2790,
      "Ġgroups": 2791,
      "Ġprovides": 2792,
      "Ġrisk": 2793,
      "Ġtast": 2794,
      "ĠTV": 2795,
      "earch": 2796,
      "Ġguys": 2797,
      "Ġfair": 2798,
      "Ġtown": 2799,
      "rown": 2800,
      "iful": 2801,
      "Ġdecl": 2802,
      "Ġmaybe": 2803,
      "Ġleaders": 2804,
      "Ġperformance": 2805,
      "ography": 2806,
      "Ġtit": 2807,
      "icles": 2808,
      "Ġlo": 2809,
      "ĠWell": 2810,
      "ecut": 2811,
      "Ġhappy": 2812,
      "ĠFriday": 2813,
      "Ġcurrently": 2814,
      "board": 2815,
      "Ġdate": 2816,
      "Ġitself": 2817,
      "illing": 2818,
      "ĠOur": 2819,
      "osing": 2820,
      "Ġguy": 2821,
      "Ġsometimes": 2822,
      "Ġclean": 2823,
      "Ġwoman": 2824,
      "ĠEuropean": 2825,
      "Ġwide": 2826,
      "Ġboard": 2827,
      "Ġfast": 2828,
      "ednes": 2829,
      "ĠSaturday": 2830,
      "Ġ21": 2831,
      "Ġdepend": 2832,
      "Ġassoci": 2833,
      "ĠDecember": 2834,
      "Ġpiece": 2835,
      "Ġinvolved": 2836,
      "Ġsus": 2837,
      "Ġloss": 2838,
      "Ġrelease": 2839,
      "umn": 2840,
      "Ġsignificant": 2841,
      "Ġengine": 2842,
      "ĠAustral": 2843,
      "Ġbur": 2844,
      "ĠThen": 2845,
      "Ġcomputer": 2846,
      "Ġready": 2847,
      "Ġcourt": 2848,
      "Ġdrive": 2849,
      "Ġcode": 2850,
      "ĠAc": 2851,
      "Ġfinancial": 2852,
      "aught": 2853,
      "Ġcampaign": 2854,
      "Ġopportunity": 2855,
      "wise": 2856,
      "erc": 2857,
      "Ġknew": 2858,
      "Ġtried": 2859,
      "Ġextra": 2860,
      "Ġreceive": 2861,
      "ny": 2862,
      "vent": 2863,
      "Ġaverage": 2864,
      "roll": 2865,
      "Ġstates": 2866,
      "Ġvict": 2867,
      "Ġpolice": 2868,
      "ednesday": 2869,
      "oke": 2870,
      "Ġmass": 2871,
      "iles": 2872,
      "ĠHar": 2873,
      "aph": 2874,
      "Ġmedical": 2875,
      "Ġ,": 2876,
      "oring": 2877,
      "Ġmention": 2878,
      "Ġhor": 2879,
      "ĠSen": 2880,
      "ĠMus": 2881,
      "chie": 2882,
      "hood": 2883,
      "yond": 2884,
      "Ġsubs": 2885,
      "Ġterms": 2886,
      "Ġtal": 2887,
      "acebook": 2888,
      "ĠHere": 2889,
      "Ġopin": 2890,
      "Ġtreatment": 2891,
      "Ġmanagement": 2892,
      "ham": 2893,
      "Ġcross": 2894,
      "artment": 2895,
      "rought": 2896,
      "Ġweekend": 2897,
      "Ġeconomic": 2898,
      "oul": 2899,
      "eth": 2900,
      "Ġarch": 2901,
      "Ġcollection": 2902,
      "Ġcenter": 2903,
      "Ġsell": 2904,
      "Ġstandard": 2905,
      "Ġtable": 2906,
      "Ġhol": 2907,
      "ĠCoun": 2908,
      "ĠPat": 2909,
      "Ġ26": 2910,
      "Ġclick": 2911,
      "uf": 2912,
      "wood": 2913,
      "itte": 2914,
      "ened": 2915,
      "Ġdise": 2916,
      "ATE": 2917,
      "band": 2918,
      "sp": 2919,
      "Ġaw": 2920,
      "ĠWest": 2921,
      "ĠJack": 2922,
      "ival": 2923,
      "ressed": 2924,
      "aves": 2925,
      "Ġinterview": 2926,
      "Ġprior": 2927,
      "Ġaffect": 2928,
      "che": 2929,
      "Ġmix": 2930,
      "ida": 2931,
      "ceed": 2932,
      "Ġ27": 2933,
      "Ġphone": 2934,
      "Ġsummer": 2935,
      "rem": 2936,
      "Ġround": 2937,
      "Ġchoose": 2938,
      "Ġideas": 2939,
      "With": 2940,
      "Ġbal": 2941,
      "Ġlanguage": 2942,
      "Ġvac": 2943,
      "Ġhands": 2944,
      "mas": 2945,
      "Ġprojects": 2946,
      "Ġbroad": 2947,
      "cription": 2948,
      "24": 2949,
      "bum": 2950,
      "Ġviol": 2951,
      "Ġarri": 2952,
      "Ġsched": 2953,
      "erved": 2954,
      "ĠReg": 2955,
      "Ġ23": 2956,
      "ĠFin": 2957,
      "Ġexperi": 2958,
      "Ġproduction": 2959,
      "Ġsle": 2960,
      "ises": 2961,
      "Ġfresh": 2962,
      "Ġmother": 2963,
      "ĠPlease": 2964,
      "oogle": 2965,
      "Ġcommunic": 2966,
      "Ġinteresting": 2967,
      "error": 2968,
      "Ġitems": 2969,
      "ĠDavid": 2970,
      "Post": 2971,
      "ray": 2972,
      "orge": 2973,
      "ĠMonday": 2974,
      "ĠGener": 2975,
      "Ġappe": 2976,
      "avy": 2977,
      "ino": 2978,
      "Ġboy": 2979,
      "lying": 2980,
      "Ġmovie": 2981,
      "ening": 2982,
      "utions": 2983,
      "istic": 2984,
      "ĠStreet": 2985,
      "Ġgrad": 2986,
      "Ġnecessary": 2987,
      "rel": 2988,
      "ope": 2989,
      "Ġresources": 2990,
      "anger": 2991,
      "Ġthroughout": 2992,
      "face": 2993,
      "Ġsort": 2994,
      "Ġones": 2995,
      "Ġdep": 2996,
      "Ġresponse": 2997,
      "Ġlimited": 2998,
      "Ġreleased": 2999,
      "ares": 3000,
      "oom": 3001,
      "Ġwall": 3002,
      "Ġdrug": 3003,
      "ocks": 3004,
      "Ġspent": 3005,
      "Ġmedic": 3006,
      "Ġmaterial": 3007,
      "Ġpublished": 3008,
      "ĠSeptember": 3009,
      "Ġsat": 3010,
      "Ġsource": 3011,
      "itc": 3012,
      "aries": 3013,
      "ĠHigh": 3014,
      "izing": 3015,
      "Ġincluded": 3016,
      "Ġbuilt": 3017,
      "uesday": 3018,
      "opyright": 3019,
      "vis": 3020,
      "ago": 3021,
      "agement": 3022,
      "ĠFirst": 3023,
      "ĠHealth": 3024,
      "ursday": 3025,
      "Ġcompletely": 3026,
      "ming": 3027,
      "ĠOf": 3028,
      "Ġoffers": 3029,
      "zy": 3030,
      "Ġess": 3031,
      "Ġmid": 3032,
      "ubs": 3033,
      "ĠInc": 3034,
      "Ġ2006": 3035,
      "Ġcountries": 3036,
      "Ġparents": 3037,
      "ĠDepartment": 3038,
      "Ġfaith": 3039,
      "Ġple": 3040,
      "ĠGreen": 3041,
      "Ġability": 3042,
      "Ġconsum": 3043,
      "ĠAdd": 3044,
      "AA": 3045,
      "Ġcat": 3046,
      "Ġled": 3047,
      "ett": 3048,
      "Ġlear": 3049,
      "Ġadministr": 3050,
      "Ġcapt": 3051,
      "Ġtouch": 3052,
      "hel": 3053,
      "arily": 3054,
      "Ġimmedi": 3055,
      "Ġquarter": 3056,
      "Ġruns": 3057,
      "Ġdetails": 3058,
      "ĠAcc": 3059,
      "Ġneg": 3060,
      "iction": 3061,
      "Ġfinally": 3062,
      "aven": 3063,
      "Ġsn": 3064,
      "Ġbillion": 3065,
      "edd": 3066,
      "Ġinsp": 3067,
      "Ġsystems": 3068,
      "Ġmessage": 3069,
      "uk": 3070,
      "Ġpred": 3071,
      "Ġgen": 3072,
      "Ġreported": 3073,
      "Ġtalking": 3074,
      "pose": 3075,
      "ĠUp": 3076,
      "Ġenter": 3077,
      "anced": 3078,
      "Ġincrease": 3079,
      "ĠAssociation": 3080,
      "Ġobs": 3081,
      "str": 3082,
      "idered": 3083,
      "EC": 3084,
      "ara": 3085,
      "ĠSunday": 3086,
      "Ġstories": 3087,
      "ĠEl": 3088,
      "Ġchoice": 3089,
      "Ġlibr": 3090,
      "Ġprofessional": 3091,
      "22": 3092,
      "Ġhuge": 3093,
      "iding": 3094,
      "imately": 3095,
      "Ġstra": 3096,
      "ĠDirect": 3097,
      "ĠFacebook": 3098,
      "Ġfeet": 3099,
      "40": 3100,
      "mission": 3101,
      "Ġfelt": 3102,
      "uses": 3103,
      "Ġalone": 3104,
      "Ġimag": 3105,
      "Ġspirit": 3106,
      "Ġpoor": 3107,
      "azing": 3108,
      "Ġencour": 3109,
      "cle": 3110,
      "Ġbrought": 3111,
      "icks": 3112,
      "iller": 3113,
      "Ġsafe": 3114,
      "ĠUnion": 3115,
      "Ġattention": 3116,
      "Ġwrite": 3117,
      "Ġapplication": 3118,
      "Ġlatest": 3119,
      "sec": 3120,
      "Ġcommer": 3121,
      "Ġalbum": 3122,
      "Ġemb": 3123,
      "Ġphotos": 3124,
      "based": 3125,
      "ms": 3126,
      "ĠFrom": 3127,
      "Ġvia": 3128,
      "Ġscore": 3129,
      "ĠWeb": 3130,
      "Ġdownload": 3131,
      "Ġorganization": 3132,
      "Ġexpected": 3133,
      "ĠEnglish": 3134,
      "ĠInternational": 3135,
      "ĠTHE": 3136,
      "bul": 3137,
      "ek": 3138,
      "Ġaware": 3139,
      "Ġsun": 3140,
      "Ġpan": 3141,
      "Ġmach": 3142,
      "ĠUs": 3143,
      "enced": 3144,
      "Ġcarry": 3145,
      "Ġmodel": 3146,
      "Ġoccur": 3147,
      "mail": 3148,
      "Ġcell": 3149,
      "Ġfederal": 3150,
      "icient": 3151,
      "Ġeasily": 3152,
      "Ġanswer": 3153,
      "By": 3154,
      "Ġbed": 3155,
      "ulations": 3156,
      "Ġstarting": 3157,
      "Ġdoub": 3158,
      "No": 3159,
      "Ġsil": 3160,
      "ĠSch": 3161,
      "ĠRock": 3162,
      "astic": 3163,
      "Ġimage": 3164,
      "Ġpartners": 3165,
      "Ġfell": 3166,
      "Ġnearly": 3167,
      "Ġactivities": 3168,
      "edom": 3169,
      "Ġlab": 3170,
      "Ġrange": 3171,
      "uments": 3172,
      "Ġflow": 3173,
      "Ġpotential": 3174,
      "Ġlearning": 3175,
      "su": 3176,
      "Ġfather": 3177,
      "Ġlower": 3178,
      "ĠInt": 3179,
      "Ġgiving": 3180,
      "ĠMon": 3181,
      "Ġshot": 3182,
      "ĠJe": 3183,
      "rugg": 3184,
      "Ġlooked": 3185,
      "ĠWhile": 3186,
      "Ġinterested": 3187,
      "Ġtemper": 3188,
      "Cl": 3189,
      "mitted": 3190,
      "Ġten": 3191,
      "Ġnation": 3192,
      "Ġeat": 3193,
      "ĠBudd": 3194,
      "Ġyourself": 3195,
      "Ġdesigned": 3196,
      "ĠSpring": 3197,
      "pite": 3198,
      "aker": 3199,
      "Ġagree": 3200,
      "Ġcorrect": 3201,
      "Ġsom": 3202,
      "add": 3203,
      "Ġ29": 3204,
      "Ġwhose": 3205,
      "Ġimpact": 3206,
      "mm": 3207,
      "Ġachie": 3208,
      "Ġbirth": 3209,
      "arget": 3210,
      "leg": 3211,
      "imum": 3212,
      "Ġlevels": 3213,
      "ructure": 3214,
      "Ġsales": 3215,
      "ĠInternet": 3216,
      "fl": 3217,
      "Ġmaint": 3218,
      "Ġperhaps": 3219,
      "Ġphoto": 3220,
      "Ġbeginning": 3221,
      "LL": 3222,
      "lim": 3223,
      "Ġsens": 3224,
      "ĠAN": 3225,
      "Ġwhatever": 3226,
      "Ġuser": 3227,
      "Ġwants": 3228,
      "ĠWhy": 3229,
      "Ġearlier": 3230,
      "Ġsituation": 3231,
      "Ġdocument": 3232,
      "Ġexactly": 3233,
      "ufact": 3234,
      "Ġsection": 3235,
      "ĠDem": 3236,
      "airs": 3237,
      "pic": 3238,
      "round": 3239,
      "inner": 3240,
      "Ġwife": 3241,
      "isions": 3242,
      "orrow": 3243,
      "Ġfix": 3244,
      "Ġthreat": 3245,
      "ĠSpe": 3246,
      "ĠAre": 3247,
      "ĠRich": 3248,
      "Ġrate": 3249,
      "Ġdoll": 3250,
      "ibly": 3251,
      "Ġallowed": 3252,
      "After": 3253,
      "ipe": 3254,
      "Ġfine": 3255,
      "omb": 3256,
      "oday": 3257,
      "Ġneigh": 3258,
      "ports": 3259,
      "Here": 3260,
      "aughter": 3261,
      "Ġadditional": 3262,
      "Ġbeautiful": 3263,
      "bit": 3264,
      "gar": 3265,
      "name": 3266,
      "ĠII": 3267,
      "ĠAM": 3268,
      "unt": 3269,
      "ĠGerm": 3270,
      "rench": 3271,
      "Ġpressure": 3272,
      "23": 3273,
      "erve": 3274,
      "Ġlay": 3275,
      "Ġang": 3276,
      "Ġdepart": 3277,
      "duce": 3278,
      "Ġintro": 3279,
      "ech": 3280,
      "ux": 3281,
      "Ġ=": 3282,
      "Ġcy": 3283,
      "Ġdiv": 3284,
      "ĠTur": 3285,
      "ĠRom": 3286,
      "ĠâĢ¦": 3287,
      "Ġpatients": 3288,
      "ĠGroup": 3289,
      "Ġprevious": 3290,
      "Ġinternational": 3291,
      "bl": 3292,
      "Ġut": 3293,
      "Ġdro": 3294,
      "Ġgreen": 3295,
      "ctions": 3296,
      "Ġunique": 3297,
      "ground": 3298,
      "Ġdirector": 3299,
      "ĠChristian": 3300,
      "Ġhappened": 3301,
      "ittee": 3302,
      "SS": 3303,
      "enty": 3304,
      "Ġrout": 3305,
      "ĠKe": 3306,
      "ĠRead": 3307,
      "Ġprevent": 3308,
      "Ġdisease": 3309,
      "ION": 3310,
      "iber": 3311,
      "pen": 3312,
      "urance": 3313,
      "Ġplans": 3314,
      "Ġsold": 3315,
      "Ġconsidered": 3316,
      "Ġdrink": 3317,
      "Ġgrowth": 3318,
      "Ġeyes": 3319,
      "ĠCouncil": 3320,
      "One": 3321,
      "ĠRed": 3322,
      "Ġevidence": 3323,
      "Ġreports": 3324,
      "Ġwait": 3325,
      "Ġrelated": 3326,
      "Ġapproach": 3327,
      "Ġ>": 3328,
      "Ġband": 3329,
      "Ġmis": 3330,
      "imin": 3331,
      "ĠChurch": 3332,
      "Ġcouldn": 3333,
      "Ġacqu": 3334,
      "Ġserious": 3335,
      "ken": 3336,
      "put": 3337,
      "Ġdark": 3338,
      "omas": 3339,
      "Ġreach": 3340,
      "ĠBill": 3341,
      "ĠHome": 3342,
      "Ġdog": 3343,
      "Ġslow": 3344,
      "ĠLeague": 3345,
      "Ġcosts": 3346,
      "Ġannounced": 3347,
      "Ġdigital": 3348,
      "olic": 3349,
      "Ġseven": 3350,
      "udget": 3351,
      "rael": 3352,
      "Ġearth": 3353,
      "bur": 3354,
      "ald": 3355,
      "ĠCong": 3356,
      "Ġdirectly": 3357,
      "ĠFlor": 3358,
      "ĠAfrica": 3359,
      "AM": 3360,
      "At": 3361,
      "ET": 3362,
      "field": 3363,
      "ĠIN": 3364,
      "idents": 3365,
      "Ġrace": 3366,
      "ĠAmericans": 3367,
      "down": 3368,
      "just": 3369,
      "erry": 3370,
      "Ġwish": 3371,
      "Ġmiddle": 3372,
      "Ġbeyond": 3373,
      "Ġcomfort": 3374,
      "They": 3375,
      "Ġrespond": 3376,
      "Ġconcern": 3377,
      "Ġbat": 3378,
      "ĠWednesday": 3379,
      "ĠEast": 3380,
      "Ġalthough": 3381,
      "ondon": 3382,
      "Ġcandid": 3383,
      ");": 3384,
      "rary": 3385,
      "Ġment": 3386,
      "Ġheat": 3387,
      "ĠMicro": 3388,
      "ĠEvery": 3389,
      "ĠJes": 3390,
      "Ġadult": 3391,
      "mon": 3392,
      "Ġmatch": 3393,
      "Ġult": 3394,
      "ĠMem": 3395,
      "ĠMary": 3396,
      "rian": 3397,
      "ĠJew": 3398,
      "Ġdoor": 3399,
      "ression": 3400,
      "Ġspend": 3401,
      "ancy": 3402,
      "Ġchalleng": 3403,
      "Ġbill": 3404,
      "Ġfit": 3405,
      "Ġfans": 3406,
      "ĠDis": 3407,
      "Ġconduct": 3408,
      "Ġshoot": 3409,
      "Ġsites": 3410,
      "Ġcredit": 3411,
      "set": 3412,
      "Ã©": 3413,
      "Ġson": 3414,
      "isl": 3415,
      "Ġpark": 3416,
      "ĠEven": 3417,
      "ĠOF": 3418,
      "Ġnumbers": 3419,
      "Ġpositive": 3420,
      "Ġcertainly": 3421,
      "EF": 3422,
      "enge": 3423,
      "Ġeight": 3424,
      "Ġtruth": 3425,
      "Ġfeeling": 3426,
      "Ġjobs": 3427,
      "Ġunderstanding": 3428,
      "Ġmiles": 3429,
      "ĠServices": 3430,
      "ĠMichael": 3431,
      "lin": 3432,
      "Ġcra": 3433,
      "Ġmobile": 3434,
      "iced": 3435,
      "ĠPress": 3436,
      "Ġhair": 3437,
      "Ġscient": 3438,
      "Ġthous": 3439,
      "Ġimages": 3440,
      "Ġfloor": 3441,
      "Ġtrip": 3442,
      "Ġmoved": 3443,
      "ĠApple": 3444,
      "Is": 3445,
      "new": 3446,
      "Ġsen": 3447,
      "Ġwarm": 3448,
      "estern": 3449,
      "asc": 3450,
      "ĠSw": 3451,
      "Ġrules": 3452,
      "ĠOh": 3453,
      "Ġsaf": 3454,
      "itely": 3455,
      "duction": 3456,
      "Ġdifference": 3457,
      "net": 3458,
      "Ġpages": 3459,
      "ĠIr": 3460,
      "Ġemer": 3461,
      "aches": 3462,
      "ĠCons": 3463,
      "iring": 3464,
      "ĠPaul": 3465,
      "Ġaren": 3466,
      "ivil": 3467,
      "Ġculture": 3468,
      "Ġhospital": 3469,
      "?\"": 3470,
      "mark": 3471,
      "Ġ@": 3472,
      "reci": 3473,
      "ager": 3474,
      "ĠJud": 3475,
      "Ġfeature": 3476,
      "undred": 3477,
      "ĠProf": 3478,
      "mat": 3479,
      "Ġbi": 3480,
      "ani": 3481,
      "Ġmale": 3482,
      "Ġdaily": 3483,
      "Ġhus": 3484,
      "Ġsuccessful": 3485,
      "ĠOffice": 3486,
      "Ġfamilies": 3487,
      "bo": 3488,
      "ford": 3489,
      "Ġfan": 3490,
      "ĠBu": 3491,
      "ĠBecause": 3492,
      "ivity": 3493,
      "Ġspot": 3494,
      "ension": 3495,
      "Ġrelig": 3496,
      "ysis": 3497,
      "Ġposts": 3498,
      "Ġserve": 3499,
      "Ġmodern": 3500,
      "Ġobv": 3501,
      "Ġrestaur": 3502,
      "Posted": 3503,
      "rig": 3504,
      "Ġlif": 3505,
      "Ġprison": 3506,
      "rences": 3507,
      "Ġaccom": 3508,
      "ĠWhite": 3509,
      "Ġintegr": 3510,
      "Ġrestr": 3511,
      "Ġphysical": 3512,
      "stitute": 3513,
      "Our": 3514,
      "Ġfirm": 3515,
      "ari": 3516,
      "Ġclos": 3517,
      "Ġfeed": 3518,
      "Ġamazing": 3519,
      "Ġeffort": 3520,
      "Ġcustomers": 3521,
      "Ġautom": 3522,
      "Ġbaby": 3523,
      "ĠGeneral": 3524,
      "45": 3525,
      "dom": 3526,
      "gen": 3527,
      "itiz": 3528,
      "Ġnote": 3529,
      "Ġmanufact": 3530,
      "Ġwouldn": 3531,
      "Ġfiles": 3532,
      "Ġchanged": 3533,
      "New": 3534,
      "men": 3535,
      "opped": 3536,
      "reak": 3537,
      "stan": 3538,
      "Ġstyle": 3539,
      "ĠMad": 3540,
      "ĠMost": 3541,
      "Ġtruly": 3542,
      "Ġguess": 3543,
      "ĠArch": 3544,
      "Ġglobal": 3545,
      "amera": 3546,
      "?âĢĿ": 3547,
      "ault": 3548,
      "een": 3549,
      "Ġ*": 3550,
      "owl": 3551,
      "olute": 3552,
      "ĠEar": 3553,
      "ocol": 3554,
      "Ġplant": 3555,
      "ĠChina": 3556,
      "Ġhelped": 3557,
      "Ġstatement": 3558,
      "ength": 3559,
      "ĠTwitter": 3560,
      "Ġnormal": 3561,
      "ĠAngel": 3562,
      "Ġmount": 3563,
      "Ġgives": 3564,
      "ĠAir": 3565,
      "Ġforce": 3566,
      "Ġdeveloped": 3567,
      "Ġappropri": 3568,
      "26": 3569,
      "28": 3570,
      "uate": 3571,
      "Ġlack": 3572,
      "ĠGoogle": 3573,
      "Ġtrust": 3574,
      "Ġrequest": 3575,
      "duced": 3576,
      "Ġconditions": 3577,
      "ĠÂ»": 3578,
      "Ġreve": 3579,
      "ĠBo": 3580,
      "Ġprices": 3581,
      "Ġkept": 3582,
      "Ġlocated": 3583,
      "Ġpicture": 3584,
      "IST": 3585,
      "cy": 3586,
      "inally": 3587,
      "Ġgone": 3588,
      "igation": 3589,
      "unk": 3590,
      "ĠLa": 3591,
      "Ġconsist": 3592,
      "Ġremain": 3593,
      "Ġsett": 3594,
      "Pro": 3595,
      "verse": 3596,
      "Ġstock": 3597,
      "ously": 3598,
      "Ġmaterials": 3599,
      "Ġsomew": 3600,
      "):": 3601,
      "33": 3602,
      "VE": 3603,
      "Ġaward": 3604,
      "Ġfile": 3605,
      "Ġrev": 3606,
      "Ġconvers": 3607,
      "usiness": 3608,
      "Ġvote": 3609,
      "ĠYear": 3610,
      "Ġthank": 3611,
      "Ġ60": 3612,
      "Ġmultiple": 3613,
      "rast": 3614,
      "Ġwel": 3615,
      "antly": 3616,
      "Ġtrade": 3617,
      "Ġteams": 3618,
      "Ġeffective": 3619,
      "esterday": 3620,
      "Un": 3621,
      "itect": 3622,
      "Ġfarm": 3623,
      "alt": 3624,
      "Ġinform": 3625,
      "Ġdied": 3626,
      "ĠTimes": 3627,
      "ĠMac": 3628,
      "Ġblue": 3629,
      "ĠProgram": 3630,
      "Ġpieces": 3631,
      "Ġden": 3632,
      "ĠMag": 3633,
      "unte": 3634,
      "ĠOther": 3635,
      "Ġbottom": 3636,
      "Ġsafety": 3637,
      "05": 3638,
      "OS": 3639,
      "iation": 3640,
      "Ġapart": 3641,
      "aly": 3642,
      "ĠTuesday": 3643,
      "Ġprop": 3644,
      "ĠOut": 3645,
      "venue": 3646,
      "reng": 3647,
      "Ġcollege": 3648,
      "ĠTrans": 3649,
      "Ġmilitary": 3650,
      "27": 3651,
      "Ġsale": 3652,
      "Ġhous": 3653,
      "ĠSee": 3654,
      "Ġprot": 3655,
      "riage": 3656,
      "Ġconcept": 3657,
      "ĠThursday": 3658,
      "Ġgrand": 3659,
      "Ġposted": 3660,
      "example": 3661,
      "Ġallows": 3662,
      "Ġconstit": 3663,
      "useum": 3664,
      "Ġcondition": 3665,
      "Ġstraight": 3666,
      "99": 3667,
      "zz": 3668,
      "Ġtarget": 3669,
      "Ġsociety": 3670,
      "sequ": 3671,
      "Ġstage": 3672,
      "Ġprogress": 3673,
      "ĠUN": 3674,
      "Ġimplement": 3675,
      "Ġleading": 3676,
      "ĠIsrael": 3677,
      "Ġschools": 3678,
      "www": 3679,
      "Ġensure": 3680,
      "Not": 3681,
      "Ġliter": 3682,
      "Ġep": 3683,
      "Ġstrugg": 3684,
      "Ġhaven": 3685,
      "Ġserved": 3686,
      "Ġfollowed": 3687,
      "Ġlearned": 3688,
      "Ġbenefit": 3689,
      "ecutive": 3690,
      "Ġhusband": 3691,
      "She": 3692,
      "ius": 3693,
      "point": 3694,
      "Ġthus": 3695,
      "icago": 3696,
      "ĠWind": 3697,
      "ĠRober": 3698,
      "ĠLondon": 3699,
      "Ġtend": 3700,
      "Ġparts": 3701,
      "ĠChristmas": 3702,
      "ĠService": 3703,
      "Be": 3704,
      "anch": 3705,
      "see": 3706,
      "Ġstar": 3707,
      "Ġsave": 3708,
      "encies": 3709,
      "ashion": 3710,
      "Ġsweet": 3711,
      "80": 3712,
      "arc": 3713,
      "Ġaltern": 3714,
      "ĠJames": 3715,
      "Ġcancer": 3716,
      "Ġplaces": 3717,
      "Ġdisplay": 3718,
      "Ġfinished": 3719,
      "Ġannual": 3720,
      "Don": 3721,
      "ĠPet": 3722,
      "ĠLord": 3723,
      "ĠJones": 3724,
      "Ġplat": 3725,
      "avior": 3726,
      "Ġblock": 3727,
      "Ġindic": 3728,
      "Ġpatient": 3729,
      "Ġmoving": 3730,
      "ĠCommission": 3731,
      "ĠCollege": 3732,
      "Ġdemand": 3733,
      "ubbard": 3734,
      "stanbul": 3735,
      "OL": 3736,
      "lam": 3737,
      "ma": 3738,
      "night": 3739,
      "itude": 3740,
      "Ġbudget": 3741,
      "Ġlines": 3742,
      "Ġnamed": 3743,
      "vey": 3744,
      "Ġliqu": 3745,
      "soft": 3746,
      "Ġmeaning": 3747,
      "ĠPeople": 3748,
      "Ġfigure": 3749,
      "Ġwonderful": 3750,
      "Ġopinion": 3751,
      "lements": 3752,
      "Ġrepe": 3753,
      "ĠDec": 3754,
      "ander": 3755,
      "ĠGood": 3756,
      "ipment": 3757,
      "Ġqual": 3758,
      "Ġeconomy": 3759,
      "Ġoptions": 3760,
      "Ġindepend": 3761,
      "RA": 3762,
      "US": 3763,
      "oly": 3764,
      "ram": 3765,
      "ville": 3766,
      "wide": 3767,
      "word": 3768,
      "orry": 3769,
      "Ġvoice": 3770,
      "Ġmeant": 3771,
      "coming": 3772,
      "ĠAnn": 3773,
      "Ġskills": 3774,
      "Ġfreedom": 3775,
      "Ġsleep": 3776,
      "more": 3777,
      "aled": 3778,
      "ĠMat": 3779,
      "ĠRel": 3780,
      "rief": 3781,
      "ĠFood": 3782,
      "Ġknows": 3783,
      "Ġpurpose": 3784,
      "Ġcentury": 3785,
      "ĠCongress": 3786,
      "rs": 3787,
      "Ġoption": 3788,
      "orks": 3789,
      "ĠIra": 3790,
      "ĠLaw": 3791,
      "Ġextend": 3792,
      "Ġtrou": 3793,
      "Ġpassed": 3794,
      "Ġproviding": 3795,
      "Ġpaid": 3796,
      "Ġnut": 3797,
      "change": 3798,
      "âĢĿ.": 3799,
      "Ġhighly": 3800,
      "Ġreflect": 3801,
      "ĠBrown": 3802,
      "Ġparticularly": 3803,
      "Ġjoin": 3804,
      "\",": 3805,
      "Please": 3806,
      "uing": 3807,
      "Ġ+": 3808,
      "Ġwww": 3809,
      "Ġhundred": 3810,
      "ady": 3811,
      "Ġstreng": 3812,
      "ĠNor": 3813,
      "ĠLat": 3814,
      "Ġappreci": 3815,
      "Ġhappens": 3816,
      "Ġadvice": 3817,
      "Ġskin": 3818,
      "Ġeffects": 3819,
      "how": 3820,
      "opping": 3821,
      "Ġcateg": 3822,
      "Ġreasons": 3823,
      "Ġdoctor": 3824,
      "Ġliber": 3825,
      "ĠKing": 3826,
      "Ġotherwise": 3827,
      "Ġlegal": 3828,
      "ĠFlorida": 3829,
      "21": 3830,
      "mar": 3831,
      "yl": 3832,
      "Ġtick": 3833,
      "Ġgun": 3834,
      "ĠHubbard": 3835,
      "Ġproced": 3836,
      "Ġjump": 3837,
      "Ġseeing": 3838,
      "Ġhistor": 3839,
      "Ġonto": 3840,
      "Ġund": 3841,
      "ĠMany": 3842,
      "Ġspring": 3843,
      "Ġconsult": 3844,
      "ĠPhil": 3845,
      "Ġpictures": 3846,
      "ipping": 3847,
      "inated": 3848,
      "ĠSam": 3849,
      "Ġexcell": 3850,
      "Ġ196": 3851,
      "Ġinstit": 3852,
      "Ġofficial": 3853,
      "Ġimmediately": 3854,
      "Now": 3855,
      "rey": 3856,
      "Ġcatch": 3857,
      "ĠMiss": 3858,
      "ĠPri": 3859,
      "azine": 3860,
      "tr": 3861,
      "Ġpath": 3862,
      "Ġdress": 3863,
      "Ġreb": 3864,
      "Ġreached": 3865,
      "Ġwilling": 3866,
      "Ġ2005": 3867,
      "hest": 3868,
      "vere": 3869,
      "iled": 3870,
      "ĠBra": 3871,
      "rial": 3872,
      "Ġjournal": 3873,
      "izes": 3874,
      "Ġowners": 3875,
      "Ġdiscussion": 3876,
      "OW": 3877,
      "iar": 3878,
      "Ġer": 3879,
      "Ġlinks": 3880,
      "acing": 3881,
      "urning": 3882,
      "Ġconserv": 3883,
      "ĠAlso": 3884,
      "Ġeye": 3885,
      "ĠBritish": 3886,
      "ĠIraq": 3887,
      "BC": 3888,
      "DA": 3889,
      "hold": 3890,
      "Ġver": 3891,
      "Ġwood": 3892,
      "Ġpet": 3893,
      "Ġthrow": 3894,
      "aints": 3895,
      "ĠEduc": 3896,
      "Ġ31": 3897,
      "Ġlargest": 3898,
      "Ġpattern": 3899,
      "Ġhealthy": 3900,
      "Ġpopulation": 3901,
      "ĠCanada": 3902,
      "vest": 3903,
      "Ġclin": 3904,
      "uclear": 3905,
      "Ġoverall": 3906,
      "Ġveh": 3907,
      "Ġfemale": 3908,
      "47": 3909,
      "LE": 3910,
      "ipp": 3911,
      "itation": 3912,
      "Ġtoward": 3913,
      "Ġuses": 3914,
      "Ġ80": 3915,
      "SC": 3916,
      "SI": 3917,
      "pm": 3918,
      "Ġton": 3919,
      "ĠMor": 3920,
      "ĠMike": 3921,
      "ores": 3922,
      "Ġefforts": 3923,
      "Ġretail": 3924,
      "Ġreality": 3925,
      "Ġlegisl": 3926,
      "ĠMod": 3927,
      "Ġchurch": 3928,
      "Ġunc": 3929,
      "Ġparties": 3930,
      "Ġcoach": 3931,
      "ribution": 3932,
      "Ġextreme": 3933,
      "More": 3934,
      "bon": 3935,
      "Ġtowards": 3936,
      "ĠCup": 3937,
      "iling": 3938,
      "Ġletter": 3939,
      "Ġeasier": 3940,
      "Ġpromot": 3941,
      "ĠSystem": 3942,
      "Ġclearly": 3943,
      "Ġanaly": 3944,
      "ugg": 3945,
      "with": 3946,
      "ĠAD": 3947,
      "ĠJournal": 3948,
      "ampions": 3949,
      "hips": 3950,
      "force": 3951,
      "Ġpurchase": 3952,
      "Ġabsolute": 3953,
      "het": 3954,
      "outs": 3955,
      "Ġbutter": 3956,
      "annel": 3957,
      "Ġdraft": 3958,
      "Ġtypes": 3959,
      "house": 3960,
      "ero": 3961,
      "edy": 3962,
      "Ġmist": 3963,
      "igan": 3964,
      "istics": 3965,
      "using": 3966,
      "osh": 3967,
      "ĠInter": 3968,
      "Ġuseful": 3969,
      "Ġemot": 3970,
      "inese": 3971,
      "Ġobt": 3972,
      "Ġincreasing": 3973,
      "ĠSuper": 3974,
      "ĠScient": 3975,
      "Ġdream": 3976,
      "ustr": 3977,
      "ection": 3978,
      "Ġsurv": 3979,
      "Ġproduce": 3980,
      "Ġsigned": 3981,
      "Ġoccas": 3982,
      "ĠMedia": 3983,
      "Ġdebate": 3984,
      "Ġdouble": 3985,
      "Ġtitle": 3986,
      "OP": 3987,
      "lished": 3988,
      "spect": 3989,
      "Ġlic": 3990,
      "ĠSim": 3991,
      "ĠMart": 3992,
      "ĠRob": 3993,
      "ĠFree": 3994,
      "ĠChicago": 3995,
      "Ġexpand": 3996,
      "ANT": 3997,
      "OC": 3998,
      "Ġwat": 3999,
      "ĠTim": 4000,
      "adio": 4001,
      "ĠPort": 4002,
      "unately": 4003,
      "active": 4004,
      "ube": 4005,
      "Ġassess": 4006,
      "Ġdemon": 4007,
      "Ġcommercial": 4008,
      "ki": 4009,
      "nded": 4010,
      "Ġdanger": 4011,
      "omen": 4012,
      "Ġnotice": 4013,
      "ĠStar": 4014,
      "ruit": 4015,
      "Ġprec": 4016,
      "Ġadvant": 4017,
      "Ġgrowing": 4018,
      "AP": 4019,
      "friend": 4020,
      "ona": 4021,
      "Ġfear": 4022,
      "Ġdistrict": 4023,
      "Ġlength": 4024,
      "ĠMet": 4025,
      "ĠLib": 4026,
      "akers": 4027,
      "Ġattract": 4028,
      "Ġglass": 4029,
      "Ġforeign": 4030,
      "Ġactivity": 4031,
      "Ġappropriate": 4032,
      "iant": 4033,
      "lor": 4034,
      "vention": 4035,
      "Ġfuel": 4036,
      "Ġgar": 4037,
      "Ġbeg": 4038,
      "ĠCath": 4039,
      "Ġconference": 4040,
      "abilities": 4041,
      "outhern": 4042,
      "Ġdisapp": 4043,
      "Ġhelps": 4044,
      "lied": 4045,
      "Ġapplications": 4046,
      "36": 4047,
      "EL": 4048,
      "but": 4049,
      "Ġcitiz": 4050,
      "isher": 4051,
      "Ġpit": 4052,
      "Ġdry": 4053,
      "Ġhang": 4054,
      "ĠIS": 4055,
      "Ġrent": 4056,
      "ĠPre": 4057,
      "ĠWord": 4058,
      "ĠHist": 4059,
      "ĠDel": 4060,
      "ĠGreat": 4061,
      "Ġkick": 4062,
      "Ġcontribut": 4063,
      "ĠAny": 4064,
      "anned": 4065,
      "Ġplanning": 4066,
      "Ġcollabor": 4067,
      "AD": 4068,
      "you": 4069,
      "ãĥ": 4070,
      "ico": 4071,
      "ĠAv": 4072,
      "ĠWork": 4073,
      "ĠLet": 4074,
      "ĠGold": 4075,
      "arden": 4076,
      "Ġlik": 4077,
      "Ġcharge": 4078,
      "Ġmanager": 4079,
      "Ġwaiting": 4080,
      "Ġfrequ": 4081,
      "Ġanalysis": 4082,
      "From": 4083,
      "itar": 4084,
      "Ġheaven": 4085,
      "Ġcold": 4086,
      "Ġsubst": 4087,
      "Ġslight": 4088,
      "ĠTechn": 4089,
      "Ġofficials": 4090,
      "ĠAfrican": 4091,
      "Ġradio": 4092,
      "Ġdefinitely": 4093,
      "Le": 4094,
      "Ġpow": 4095,
      "ston": 4096,
      "ĠBook": 4097,
      "osition": 4098,
      "Ġapply": 4099,
      "Ġspeed": 4100,
      "Ġspending": 4101,
      "Ġavoid": 4102,
      "Ġlarger": 4103,
      "Ġpresented": 4104,
      "Ġmajority": 4105,
      "Ġlibrary": 4106,
      "Ex": 4107,
      "gers": 4108,
      "Ġsust": 4109,
      "aling": 4110,
      "Ġdrop": 4111,
      "Ġnor": 4112,
      "Ġnames": 4113,
      "ado": 4114,
      "agn": 4115,
      "Ġnotes": 4116,
      "Ġ2000": 4117,
      "While": 4118,
      "Ġopened": 4119,
      "Ġstandards": 4120,
      "Ġbrother": 4121,
      "ĠResearch": 4122,
      "Ġbenefits": 4123,
      "Ġwatching": 4124,
      "Ġdegree": 4125,
      "75": 4126,
      ":||": 4127,
      "nown": 4128,
      "po": 4129,
      "Ġyesterday": 4130,
      "ĠBig": 4131,
      "chan": 4132,
      "Ġconc": 4133,
      "ĠEv": 4134,
      "ours": 4135,
      "ĠThanks": 4136,
      "Ġpeace": 4137,
      "Ġprem": 4138,
      "Ġphase": 4139,
      "Ġsecret": 4140,
      "Ġremind": 4141,
      "Ġtransl": 4142,
      "Ġcomplex": 4143,
      "Ġsolution": 4144,
      "Ġbasic": 4145,
      "Ġesc": 4146,
      "Ġindividuals": 4147,
      "Ġvariety": 4148,
      "Last": 4149,
      "RS": 4150,
      "ae": 4151,
      "Ġign": 4152,
      "ĠIstanbul": 4153,
      "Ġforget": 4154,
      "oles": 4155,
      "ĠBel": 4156,
      "ĠClass": 4157,
      "Ġbasis": 4158,
      "Ġtim": 4159,
      "ĠMal": 4160,
      "Ġweather": 4161,
      "anta": 4162,
      "Ġworry": 4163,
      "icken": 4164,
      "reek": 4165,
      "order": 4166,
      "Ġbright": 4167,
      "lands": 4168,
      "Ġcorpor": 4169,
      "Ġemployees": 4170,
      "29": 4171,
      "Ar": 4172,
      "Com": 4173,
      "ica": 4174,
      "ĠFrench": 4175,
      "ĠJim": 4176,
      "Ġcontain": 4177,
      "irection": 4178,
      "Ġactual": 4179,
      "Ġlots": 4180,
      "ĠScott": 4181,
      "Ġappears": 4182,
      "Ġcreating": 4183,
      "Ġresponsible": 4184,
      "Ġbecomes": 4185,
      "inter": 4186,
      "Ġded": 4187,
      "Ġegg": 4188,
      "ĠTex": 4189,
      "oston": 4190,
      "olly": 4191,
      "Ġsupposed": 4192,
      "porary": 4193,
      "Ġraised": 4194,
      "Ġvolunte": 4195,
      "Ġbrows": 4196,
      "ĠCr": 4197,
      "igr": 4198,
      "Ġweight": 4199,
      "olf": 4200,
      "ooper": 4201,
      "ĠFe": 4202,
      "que": 4203,
      "Ġworkers": 4204,
      "hens": 4205,
      "ologies": 4206,
      "Ġattached": 4207,
      "ĠiP": 4208,
      "Ġpowerful": 4209,
      "ĠJohnson": 4210,
      "Ġtreaty": 4211,
      "END": 4212,
      "ENT": 4213,
      "Ġtools": 4214,
      "Ġestablished": 4215,
      "ĠDirector": 4216,
      "Ġdoubt": 4217,
      "rd": 4218,
      "Ġir": 4219,
      "iny": 4220,
      "nds": 4221,
      "itable": 4222,
      "Ġcards": 4223,
      "Ġwear": 4224,
      "Ġtherefore": 4225,
      "ovel": 4226,
      "Ġspecies": 4227,
      "Ġleader": 4228,
      "Ġdetail": 4229,
      "Ġincreased": 4230,
      "Ġhomes": 4231,
      "ĠDemocr": 4232,
      "35": 4233,
      "Tr": 4234,
      "ĠTra": 4235,
      "ĠFound": 4236,
      "ĠLife": 4237,
      "ĠInstitute": 4238,
      "Ġoffered": 4239,
      "Ġunless": 4240,
      "Ġthanks": 4241,
      "Ġpray": 4242,
      "Ġshowed": 4243,
      "cript": 4244,
      "Ġproduced": 4245,
      "MS": 4246,
      "vant": 4247,
      "Ġur": 4248,
      "Ġbank": 4249,
      "esome": 4250,
      "Ġmer": 4251,
      "ici": 4252,
      "oms": 4253,
      "roy": 4254,
      "Ġyards": 4255,
      "ĠCap": 4256,
      "ĠPublic": 4257,
      "ffee": 4258,
      "Ġteaching": 4259,
      "ĠYes": 4260,
      "Ġeditor": 4261,
      "Ġgenerally": 4262,
      "199": 4263,
      "Ġcapital": 4264,
      "ĠGeorge": 4265,
      "Ġbalance": 4266,
      "Ġneighbor": 4267,
      "eah": 4268,
      "noon": 4269,
      "za": 4270,
      "Ġborn": 4271,
      "Ġfab": 4272,
      "icial": 4273,
      "uty": 4274,
      "ĠST": 4275,
      "ĠSur": 4276,
      "irgin": 4277,
      "oop": 4278,
      "ĠDown": 4279,
      "ript": 4280,
      "Ġshop": 4281,
      "ĠOld": 4282,
      "aked": 4283,
      "Ġbrand": 4284,
      "Ġgreater": 4285,
      "Ġshowing": 4286,
      "Ġbiggest": 4287,
      "Ġprotection": 4288,
      "Ġchallenge": 4289,
      "Ġprimary": 4290,
      "ĠAustralia": 4291,
      "CH": 4292,
      "Ġluck": 4293,
      "Ġstick": 4294,
      "Ġwhom": 4295,
      "ĠHill": 4296,
      "that": 4297,
      "abb": 4298,
      "Ġleaving": 4299,
      "place": 4300,
      "Ġcompon": 4301,
      "Ġspread": 4302,
      "ribute": 4303,
      "Ġended": 4304,
      "Ġfinding": 4305,
      "Why": 4306,
      "Ġorganiz": 4307,
      "fit": 4308,
      "Ġice": 4309,
      "Ġter": 4310,
      "Ġahead": 4311,
      "Ġcash": 4312,
      "Ġcivil": 4313,
      "ĠOpen": 4314,
      "Ġleague": 4315,
      "Ġrock": 4316,
      "Ġowner": 4317,
      "Ġtrial": 4318,
      "Ġopportunities": 4319,
      "ĠRichard": 4320,
      "Ġplatform": 4321,
      "iers": 4322,
      "Ġbreat": 4323,
      "ulate": 4324,
      "ĠLo": 4325,
      "Ġgold": 4326,
      "Ġ2003": 4327,
      "Ġstudies": 4328,
      "Ġassign": 4329,
      "Ġcentral": 4330,
      "hibit": 4331,
      "Phone": 4332,
      "ĠSmith": 4333,
      "Ġadministration": 4334,
      "Ġmachine": 4335,
      "Ġthousands": 4336,
      "Just": 4337,
      "nam": 4338,
      "llig": 4339,
      "Ġbeat": 4340,
      "ĠPR": 4341,
      "illa": 4342,
      "Ġvirt": 4343,
      "oves": 4344,
      "Ġtraditional": 4345,
      "Ġmentioned": 4346,
      "500": 4347,
      "PA": 4348,
      "Well": 4349,
      "gency": 4350,
      "ios": 4351,
      "ipped": 4352,
      "Ġwild": 4353,
      "ĠMex": 4354,
      "ulated": 4355,
      "Ġclot": 4356,
      "Ġeval": 4357,
      "Ġcalls": 4358,
      "Ġacadem": 4359,
      "Ġinsurance": 4360,
      "Bl": 4361,
      "Ġap": 4362,
      "Ġsitting": 4363,
      "state": 4364,
      "ĠMount": 4365,
      "ĠBusiness": 4366,
      "Ġrare": 4367,
      "anda": 4368,
      "anted": 4369,
      "ĠChinese": 4370,
      "ulty": 4371,
      "Ġactive": 4372,
      "Ġevening": 4373,
      "ĠFranc": 4374,
      "Ġsmaller": 4375,
      "Ġolder": 4376,
      "Ġlimit": 4377,
      "ĠSecret": 4378,
      "Ġliquid": 4379,
      "orter": 4380,
      "Ġbought": 4381,
      "Ġfol": 4382,
      "Ġpen": 4383,
      "Ġhar": 4384,
      "ĠSar": 4385,
      "ims": 4386,
      "Ġheavy": 4387,
      "ĠWall": 4388,
      "Ġrule": 4389,
      "apers": 4390,
      "plic": 4391,
      "Ġspeech": 4392,
      "Ġaccur": 4393,
      "Ġmostly": 4394,
      "Ġentry": 4395,
      "Ġincred": 4396,
      "ception": 4397,
      "2012": 4398,
      "Ġcharacters": 4399,
      "BS": 4400,
      "gal": 4401,
      "ker": 4402,
      "Ġcaught": 4403,
      "Ġban": 4404,
      "Ġfashion": 4405,
      "Ġlock": 4406,
      "Ġloved": 4407,
      "ĠTom": 4408,
      "ĠAC": 4409,
      "Ġworse": 4410,
      "ĠInst": 4411,
      "Ġtransfer": 4412,
      "Ġdefense": 4413,
      "ĠClub": 4414,
      "Ġraise": 4415,
      "Ġpackage": 4416,
      "Ġcaused": 4417,
      "Ġexcellent": 4418,
      "03": 4419,
      "Qu": 4420,
      "kin": 4421,
      "Ġsession": 4422,
      "Ġbird": 4423,
      "Ġpsych": 4424,
      "Ġdirection": 4425,
      "Ġnorth": 4426,
      "Ġrates": 4427,
      "Ġgoals": 4428,
      "Ġourselves": 4429,
      "Ġ35": 4430,
      "Ġroll": 4431,
      "Ġadding": 4432,
      "Ġrequires": 4433,
      "ĠParty": 4434,
      "MAG": 4435,
      "Ġmeasure": 4436,
      "Ġsenior": 4437,
      "Con": 4438,
      "Do": 4439,
      "PR": 4440,
      "miss": 4441,
      "Ġcovered": 4442,
      "Ġmill": 4443,
      "ĠCamp": 4444,
      "amb": 4445,
      "Ġaspect": 4446,
      "Ġrain": 4447,
      "Ġbrain": 4448,
      "Ġinstruct": 4449,
      "ĠManagement": 4450,
      "ronic": 4451,
      "Ġmethods": 4452,
      ")||": 4453,
      "Americ": 4454,
      "PS": 4455,
      "xx": 4456,
      "isf": 4457,
      "ĠSun": 4458,
      "Ġstation": 4459,
      "ĠHot": 4460,
      "Ġexerc": 4461,
      "ĠOver": 4462,
      "oster": 4463,
      "Ġscience": 4464,
      "Ġpool": 4465,
      "Ġlocation": 4466,
      "Ġtesting": 4467,
      "isco": 4468,
      "EM": 4469,
      "Se": 4470,
      "no": 4471,
      "ties": 4472,
      "ãģ": 4473,
      "Ġcamera": 4474,
      "inger": 4475,
      "Ġmission": 4476,
      "Ġnuclear": 4477,
      "ented": 4478,
      "Ġweap": 4479,
      "ĠRoy": 4480,
      "ĠGame": 4481,
      "ooking": 4482,
      "Ġafternoon": 4483,
      "ĠDevelop": 4484,
      "Ġsetting": 4485,
      "Ġfamous": 4486,
      "ĠIndian": 4487,
      "Ġmarriage": 4488,
      "Ġequipment": 4489,
      "which": 4490,
      "Ġdevice": 4491,
      "Ġgirls": 4492,
      "Ġestablish": 4493,
      "Ġdamage": 4494,
      "Ġtemperature": 4495,
      "Ġrestrict": 4496,
      "ĠTexas": 4497,
      "07": 4498,
      "IL": 4499,
      "win": 4500,
      "Ġreduce": 4501,
      "Ġeating": 4502,
      "illage": 4503,
      "ĠJose": 4504,
      "ĠJoe": 4505,
      "Ġadvert": 4506,
      "Ġclosed": 4507,
      "Ġhighlight": 4508,
      "Ġpreviously": 4509,
      "arently": 4510,
      "ĠEngland": 4511,
      "Ġcounter": 4512,
      "Ġassociated": 4513,
      "Ġarchitect": 4514,
      "Ġappeared": 4515,
      "??": 4516,
      "EO": 4517,
      "Fr": 4518,
      "ym": 4519,
      "ils": 4520,
      "ĠHum": 4521,
      "ĠRoad": 4522,
      "ĠEner": 4523,
      "Ġflu": 4524,
      "Ġflat": 4525,
      "Ġbusinesses": 4526,
      "Ġbehavior": 4527,
      "ĠSecurity": 4528,
      "levision": 4529,
      "Ġtaste": 4530,
      "08": 4531,
      "38": 4532,
      "Acc": 4533,
      "box": 4534,
      "Ġterror": 4535,
      "Ġbrief": 4536,
      "Ġfat": 4537,
      "Ġgra": 4538,
      "ĠSince": 4539,
      "ags": 4540,
      "Ġkid": 4541,
      "Ġclub": 4542,
      "ĠVis": 4543,
      "Ġsym": 4544,
      "Ġrelative": 4545,
      "ancing": 4546,
      "Ġwinning": 4547,
      "Ġsteps": 4548,
      "Ġseparate": 4549,
      "ĠJesus": 4550,
      "04": 4551,
      "rees": 4552,
      "Ġble": 4553,
      "Ġeth": 4554,
      "ĠSol": 4555,
      "ĠSum": 4556,
      "Ġhell": 4557,
      "ĠMil": 4558,
      "oln": 4559,
      "ĠBen": 4560,
      "uled": 4561,
      "ĠNY": 4562,
      "ĠLike": 4563,
      "Ġshown": 4564,
      "Ġplus": 4565,
      "Ġhelping": 4566,
      "Ġexperiment": 4567,
      "Ġsurround": 4568,
      "Ġinterp": 4569,
      "Ġfully": 4570,
      "Ġclaims": 4571,
      "Ġrequirements": 4572,
      "37": 4573,
      "fast": 4574,
      "oin": 4575,
      "works": 4576,
      "icip": 4577,
      "Ġelection": 4578,
      "Ġhearing": 4579,
      "ĠHam": 4580,
      "ĠRem": 4581,
      "ĠLos": 4582,
      "rupt": 4583,
      "Ġminute": 4584,
      "Ġmovement": 4585,
      "Ġcustomer": 4586,
      "Ġsongs": 4587,
      "Ġpleas": 4588,
      "TM": 4589,
      "TV": 4590,
      "Ġpure": 4591,
      "ĠBoard": 4592,
      "ĠRiver": 4593,
      "ulf": 4594,
      "pport": 4595,
      "usion": 4596,
      "ĠEach": 4597,
      "Ġ2004": 4598,
      "rowd": 4599,
      "Ġintellig": 4600,
      "Ġforms": 4601,
      "Ġmarketing": 4602,
      "Ġwinter": 4603,
      "ĠCommittee": 4604,
      "ĠCentral": 4605,
      "____": 4606,
      "ĠCompany": 4607,
      "Ġdescribed": 4608,
      "Some": 4609,
      "UR": 4610,
      "gu": 4611,
      "ih": 4612,
      "la": 4613,
      "Ġtherap": 4614,
      "Ġcart": 4615,
      "Ġdinner": 4616,
      "icies": 4617,
      "ĠBoston": 4618,
      "agon": 4619,
      "ĠGet": 4620,
      "Ġship": 4621,
      "ĠUK": 4622,
      "Ġscene": 4623,
      "Ġopening": 4624,
      "while": 4625,
      "Ġexisting": 4626,
      "May": 4627,
      "ait": 4628,
      "ij": 4629,
      "yan": 4630,
      "Ġpun": 4631,
      "Ġpaint": 4632,
      "Ġmine": 4633,
      "entially": 4634,
      "Ġrap": 4635,
      "Ġgovern": 4636,
      "Ġclients": 4637,
      "ĠKore": 4638,
      "Ġcommit": 4639,
      "standing": 4640,
      "Ġsalt": 4641,
      "Ġexcited": 4642,
      "Ġrestaurant": 4643,
      ")|": 4644,
      "39": 4645,
      "46": 4646,
      "IG": 4647,
      "eal": 4648,
      "ĠTy": 4649,
      "ĠSl": 4650,
      "sey": 4651,
      "ĠCur": 4652,
      "ĠLou": 4653,
      "alls": 4654,
      "Ġmechan": 4655,
      "ĠYOU": 4656,
      "ĠChris": 4657,
      "Ġcolumn": 4658,
      "Ġdecide": 4659,
      "Ġstrateg": 4660,
      "Ġclasses": 4661,
      "Ġtells": 4662,
      "Ġachieve": 4663,
      "Ġepis": 4664,
      "!âĢĿ": 4665,
      "55": 4666,
      "UT": 4667,
      "These": 4668,
      "Ġagency": 4669,
      "Ġseemed": 4670,
      "Ġrefer": 4671,
      "Ġlaws": 4672,
      "ĠCommunity": 4673,
      "ommod": 4674,
      "Ġteacher": 4675,
      "edding": 4676,
      "Ġwelcome": 4677,
      "RATE": 4678,
      "Ġsources": 4679,
      "Ġfly": 4680,
      "Ġdie": 4681,
      "acity": 4682,
      "Ġforum": 4683,
      "urd": 4684,
      "Ġpropos": 4685,
      "Ġarrest": 4686,
      "Ġspeaking": 4687,
      "Ġsmart": 4688,
      "Ġthoughts": 4689,
      "Ġlisten": 4690,
      "Ġsolid": 4691,
      "Ġdevices": 4692,
      "Ġcritical": 4693,
      "Ġfootball": 4694,
      "Ġschedule": 4695,
      "Ġimagine": 4696,
      "ĠProfess": 4697,
      "ixt": 4698,
      "spe": 4699,
      "reland": 4700,
      "Ġnine": 4701,
      "ota": 4702,
      "etic": 4703,
      "ili": 4704,
      "ĠLove": 4705,
      "raw": 4706,
      "Ġregulations": 4707,
      "ĠFrance": 4708,
      "Ġcontinued": 4709,
      "ĠCarol": 4710,
      "Ġhonest": 4711,
      "ĠHallow": 4712,
      "Ġselected": 4713,
      "ĠAngeles": 4714,
      "oices": 4715,
      "ishes": 4716,
      "Ġbac": 4717,
      "Ġfif": 4718,
      "oto": 4719,
      "ĠDV": 4720,
      "ĠLear": 4721,
      "Ġsugar": 4722,
      "ĠUnder": 4723,
      "Ġregion": 4724,
      "ciples": 4725,
      "ĠDef": 4726,
      "Ġinvestment": 4727,
      "fortunately": 4728,
      "ĠScience": 4729,
      "ĠDesign": 4730,
      "06": 4731,
      "rep": 4732,
      "orial": 4733,
      "oma": 4734,
      "Ġstream": 4735,
      "ĠBase": 4736,
      "Ġadop": 4737,
      "Ġteach": 4738,
      "Ġoffering": 4739,
      "Ġappoint": 4740,
      "Ġcolors": 4741,
      "Ġcompleted": 4742,
      "Ġasking": 4743,
      "Ġannounce": 4744,
      "Ġanti": 4745,
      "Ġdeliver": 4746,
      "ĠNetwork": 4747,
      "Ġsatisf": 4748,
      "pet": 4749,
      "rang": 4750,
      "zen": 4751,
      "Ġcast": 4752,
      "Ġcities": 4753,
      "Ġcopy": 4754,
      "Ġbattle": 4755,
      "Ġharm": 4756,
      "Ġthr": 4757,
      "omin": 4758,
      "ĠAri": 4759,
      "ategy": 4760,
      "istry": 4761,
      "ĠEll": 4762,
      "Ġscen": 4763,
      "oving": 4764,
      "Ġremove": 4765,
      "ĠIsland": 4766,
      "Ġfourth": 4767,
      "Ġeventually": 4768,
      "ĠMcC": 4769,
      "ĠRepublican": 4770,
      "Ġprepared": 4771,
      "Ġinnov": 4772,
      "ĠMicrosoft": 4773,
      "100": 4774,
      "hand": 4775,
      "Ġlose": 4776,
      "ĠSal": 4777,
      "ĠAccess": 4778,
      "amew": 4779,
      "Ġselection": 4780,
      "Ġrat": 4781,
      "Ġplays": 4782,
      "Ġsports": 4783,
      "Ġscript": 4784,
      "Ġcommand": 4785,
      "Ġdespite": 4786,
      "ĠiPhone": 4787,
      "Ġgeneration": 4788,
      "ĠAtt": 4789,
      "ĠWilliam": 4790,
      "ocolate": 4791,
      "CE": 4792,
      "cks": 4793,
      "atically": 4794,
      "ena": 4795,
      "Ġpus": 4796,
      "Ġder": 4797,
      "Ġload": 4798,
      "term": 4799,
      "Ġrich": 4800,
      "istan": 4801,
      "ĠNOT": 4802,
      "Ġleaves": 4803,
      "Ġpolicies": 4804,
      "Ġcorner": 4805,
      "Ġvalues": 4806,
      "ĠBuddha": 4807,
      "Ġdemonstr": 4808,
      "!)": 4809,
      "ka": 4810,
      "Ġbull": 4811,
      "Ġfish": 4812,
      "edia": 4813,
      "ros": 4814,
      "ĠTime": 4815,
      "ĠAlex": 4816,
      "imal": 4817,
      "ctors": 4818,
      "Ġrid": 4819,
      "istered": 4820,
      "ĠInformation": 4821,
      "Ġrecip": 4822,
      "ĠAcadem": 4823,
      "Ġadvantage": 4824,
      "ĠCatholic": 4825,
      "iance": 4826,
      "kay": 4827,
      "atab": 4828,
      "ano": 4829,
      "Ġdaughter": 4830,
      "asy": 4831,
      "ĠTO": 4832,
      "ĠBer": 4833,
      "ĠWil": 4834,
      "oos": 4835,
      "Ġtrain": 4836,
      "ĠThose": 4837,
      "Ġremains": 4838,
      "ĠYoung": 4839,
      "ellow": 4840,
      "gery": 4841,
      "ĠOnce": 4842,
      "ĠAtl": 4843,
      "Ġfailed": 4844,
      "ĠJackson": 4845,
      "Ġdepartment": 4846,
      "ĠEnergy": 4847,
      "ximately": 4848,
      "Ġsand": 4849,
      "Ġmort": 4850,
      "Ġmail": 4851,
      "Ġmicro": 4852,
      "ĠSocial": 4853,
      "idel": 4854,
      "amily": 4855,
      "cel": 4856,
      "ĠBay": 4857,
      "Ġran": 4858,
      "Ġvs": 4859,
      "Ġkilled": 4860,
      "acks": 4861,
      "Ġuniversity": 4862,
      "Ġaccommod": 4863,
      "Ġdecisions": 4864,
      "Ġminor": 4865,
      "Ġcontinues": 4866,
      "ĠPlay": 4867,
      "Ġinternet": 4868,
      "Ġelectric": 4869,
      "Ġhighest": 4870,
      "Ġwindow": 4871,
      "ISTRATE": 4872,
      "MAGISTRATE": 4873,
      "Ġcrowd": 4874,
      "Ġstopped": 4875,
      "ĠDen": 4876,
      "actions": 4877,
      "Ġtea": 4878,
      "Ġcoffee": 4879,
      "Ġguide": 4880,
      "Ġcris": 4881,
      "Ġawesome": 4882,
      "DF": 4883,
      "Get": 4884,
      "Ġing": 4885,
      "arant": 4886,
      "icians": 4887,
      "ĠToday": 4888,
      "Ġplaced": 4889,
      "ĠThomas": 4890,
      "Ġenh": 4891,
      "Ġ70": 4892,
      "Ġtransport": 4893,
      "Ġconstruction": 4894,
      "Ġupdate": 4895,
      "Ġbaseball": 4896,
      "Ġdefend": 4897,
      "Ġdollars": 4898,
      "ĠRobert": 4899,
      "48": 4900,
      "gn": 4901,
      "got": 4902,
      "known": 4903,
      "lies": 4904,
      "ooth": 4905,
      "ror": 4906,
      "Ġsounds": 4907,
      "Ġdu": 4908,
      "ĠTop": 4909,
      "ĠSil": 4910,
      "Ġselling": 4911,
      "ĠDig": 4912,
      "aine": 4913,
      "Ġevil": 4914,
      "cient": 4915,
      "Ġarticles": 4916,
      "ugby": 4917,
      "Ġtelling": 4918,
      "Ġoperations": 4919,
      "Ġequal": 4920,
      "Ġtotally": 4921,
      "Ġconcerned": 4922,
      "Ġagreed": 4923,
      "Ġregarding": 4924,
      "Ġtrouble": 4925,
      "Ġabsolutely": 4926,
      "09": 4927,
      "49": 4928,
      "Ġcop": 4929,
      "Ġtom": 4930,
      "Ġreform": 4931,
      "Ġge": 4932,
      "ĠMass": 4933,
      "ĠMont": 4934,
      "Ġbutton": 4935,
      "ĠThank": 4936,
      "obe": 4937,
      "Ġfinish": 4938,
      "Ġinvestig": 4939,
      "Ġreturned": 4940,
      "stitution": 4941,
      "Ġenvironmental": 4942,
      "Ġindeed": 4943,
      "Cont": 4944,
      "IM": 4945,
      "Ġsides": 4946,
      "Ġpump": 4947,
      "ĠId": 4948,
      "Ġnovel": 4949,
      "ĠTor": 4950,
      "ĠTri": 4951,
      "ĠML": 4952,
      "Ġproceed": 4953,
      "ements": 4954,
      "ĠFre": 4955,
      "Ġentertain": 4956,
      "azz": 4957,
      "ĠBlog": 4958,
      "Ġnewsp": 4959,
      "Ġconnection": 4960,
      "Ġhotel": 4961,
      "Ġcritic": 4962,
      "dden": 4963,
      "Ġiniti": 4964,
      "ĠEarth": 4965,
      "!\"": 4966,
      "pan": 4967,
      "uce": 4968,
      "ĠWestern": 4969,
      "Ġring": 4970,
      "Ġshared": 4971,
      "ocal": 4972,
      "Ġkill": 4973,
      "Ġenem": 4974,
      "ĠIts": 4975,
      "ordin": 4976,
      "ervation": 4977,
      "grad": 4978,
      "ĠWho": 4979,
      "ĠGrand": 4980,
      "Ġestate": 4981,
      "Ġwalking": 4982,
      "ĠTwo": 4983,
      "Ġcompetition": 4984,
      "Ġstatus": 4985,
      "Ġspiritual": 4986,
      "ĠLatin": 4987,
      "Ab": 4988,
      "BA": 4989,
      "DS": 4990,
      "Or": 4991,
      "Ġfilled": 4992,
      "Ġmaster": 4993,
      "Ġelements": 4994,
      "uters": 4995,
      "ĠBet": 4996,
      "Ġsequ": 4997,
      "ĠTheir": 4998,
      "Ġnoted": 4999,
      "apter": 5000,
      "Ġarm": 5001,
      "ĠVict": 5002,
      "ĠVirgin": 5003,
      "Ġaccident": 5004,
      "Ġreaders": 5005,
      "Ġmodels": 5006,
      "Ġbelieved": 5007,
      "Any": 5008,
      "Ġsuspect": 5009,
      "ĠAND": 5010,
      "Ġcomfortable": 5011,
      "ĠWindows": 5012,
      "Ġalternative": 5013,
      "Ġfolks": 5014,
      "31": 5015,
      "44": 5016,
      "cing": 5017,
      "ii": 5018,
      "Ġbul": 5019,
      "Ġmax": 5020,
      "otic": 5021,
      "iminal": 5022,
      "ola": 5023,
      "ifying": 5024,
      "Ġrise": 5025,
      "andom": 5026,
      "ipal": 5027,
      "ĠChild": 5028,
      "Ġscale": 5029,
      "Ġ2002": 5030,
      "Ġbug": 5031,
      "Ġpresence": 5032,
      "Ġmemory": 5033,
      "phone": 5034,
      "Ġdetect": 5035,
      "Ġtechnical": 5036,
      "ĠPolice": 5037,
      "Ġfamiliar": 5038,
      "Ġexperienced": 5039,
      "Ġslightly": 5040,
      "DEF": 5041,
      "See": 5042,
      "Ġfill": 5043,
      "Ġmap": 5044,
      "ĠID": 5045,
      "ĠIreland": 5046,
      "ĠWal": 5047,
      "ĠDiv": 5048,
      "Ġrank": 5049,
      "ogue": 5050,
      "Ġcontains": 5051,
      "Ġresist": 5052,
      "Ġearn": 5053,
      "Ġsets": 5054,
      "Ġchem": 5055,
      "Ġbusy": 5056,
      "Ġexpert": 5057,
      "Ġputting": 5058,
      "Ġdriving": 5059,
      "Ġmissing": 5060,
      "Ġaudience": 5061,
      "Ġdetermine": 5062,
      "Ġteachers": 5063,
      "Ġbecoming": 5064,
      "Ġvacc": 5065,
      "Ġmaintain": 5066,
      "Ġextremely": 5067,
      "IA": 5068,
      "II": 5069,
      "Let": 5070,
      "Ne": 5071,
      "care": 5072,
      "Ġrefe": 5073,
      "Ġgift": 5074,
      "ĠCare": 5075,
      "ĠFore": 5076,
      "ĠLake": 5077,
      "ĠJer": 5078,
      "obs": 5079,
      "Ġbuying": 5080,
      "Ġturns": 5081,
      "Ġsolutions": 5082,
      "Ġvalid": 5083,
      "Ġcampus": 5084,
      "Ġprofession": 5085,
      "Ġanimal": 5086,
      "Ġinfluence": 5087,
      "56": 5088,
      "De": 5089,
      "EW": 5090,
      "ingly": 5091,
      "asp": 5092,
      "ĠTest": 5093,
      "Ġyes": 5094,
      "Ġstructure": 5095,
      "estival": 5096,
      "unched": 5097,
      "Ġsharing": 5098,
      "ĠUSA": 5099,
      "Ġadjust": 5100,
      "Ġtelevision": 5101,
      "Ġclient": 5102,
      "Ġresidents": 5103,
      "Ġcoverage": 5104,
      "Ġlisted": 5105,
      "Ġinterests": 5106,
      "ĠQue": 5107,
      "Ġdiagn": 5108,
      "ĠIndia": 5109,
      "ĠMedic": 5110,
      "ĠJapanese": 5111,
      "Ġleadership": 5112,
      "Ġarrived": 5113,
      "ĠGerman": 5114,
      "Ġconcerns": 5115,
      "ĠEducation": 5116,
      "Ġsustain": 5117,
      "78": 5118,
      "IR": 5119,
      "PC": 5120,
      "itors": 5121,
      "Ġlived": 5122,
      "Ġgain": 5123,
      "Ġsudden": 5124,
      "osure": 5125,
      "allery": 5126,
      "text": 5127,
      "Ġdisp": 5128,
      "Ġrecipe": 5129,
      "Ġ2001": 5130,
      "ometimes": 5131,
      "Ġmonitor": 5132,
      "Ġsupported": 5133,
      "Ġkeeping": 5134,
      "!!!": 5135,
      "ĠPlan": 5136,
      "Ġjoined": 5137,
      "Ġargument": 5138,
      "Ġupdated": 5139,
      "Ġagreement": 5140,
      "ENDANT": 5141,
      "According": 5142,
      "DEFENDANT": 5143,
      "Me": 5144,
      "Your": 5145,
      "last": 5146,
      "under": 5147,
      "Ġtask": 5148,
      "erous": 5149,
      "Ġsouth": 5150,
      "Ġsnow": 5151,
      "Ġsoul": 5152,
      "Ġfav": 5153,
      "acr": 5154,
      "Ġstated": 5155,
      "ifts": 5156,
      "ĠRadio": 5157,
      "Ġalle": 5158,
      "Ġdiscl": 5159,
      "Ġpartner": 5160,
      "ternal": 5161,
      "Ġ500": 5162,
      "ĠDev": 5163,
      "Ġexplain": 5164,
      "Ġpredict": 5165,
      "Ġorganizations": 5166,
      "atabase": 5167,
      "32": 5168,
      "58": 5169,
      "Ed": 5170,
      "TS": 5171,
      "do": 5172,
      "gl": 5173,
      "uous": 5174,
      "Ġcake": 5175,
      "Ġrenew": 5176,
      "season": 5177,
      "ĠPC": 5178,
      "ĠPsych": 5179,
      "illy": 5180,
      "ĠWood": 5181,
      "ĠRE": 5182,
      "ems": 5183,
      "antic": 5184,
      "Ġcars": 5185,
      "Ġartists": 5186,
      "Ġfeels": 5187,
      "istration": 5188,
      "Ġestim": 5189,
      "Ġairport": 5190,
      "Ġrecords": 5191,
      "ĠMuslim": 5192,
      "Ġstrength": 5193,
      "52": 5194,
      "ras": 5195,
      "Ġfant": 5196,
      "ario": 5197,
      "Ġvir": 5198,
      "Ġshut": 5199,
      "âĢĿ,": 5200,
      "Ġanywhere": 5201,
      "cles": 5202,
      "Ġspons": 5203,
      "Ġbackground": 5204,
      "Ġinstance": 5205,
      "ĠAlthough": 5206,
      "Ġvisual": 5207,
      "ĠTeam": 5208,
      "Ġrooms": 5209,
      "2013": 5210,
      "going": 5211,
      "Ġmulti": 5212,
      "Ġcircum": 5213,
      "Ġinjury": 5214,
      "Ġmental": 5215,
      "Ġcitizens": 5216,
      "Ġtomorrow": 5217,
      ".'": 5218,
      "34": 5219,
      "Pr": 5220,
      "TH": 5221,
      "date": 5222,
      "hy": 5223,
      "iest": 5224,
      "van": 5225,
      "Ġtough": 5226,
      "Ġsad": 5227,
      "Ġbound": 5228,
      "ĠSociety": 5229,
      "ĠAnt": 5230,
      "ĠCard": 5231,
      "uries": 5232,
      "Ġsem": 5233,
      "Ġexclus": 5234,
      "ĠEconom": 5235,
      "Ġcolle": 5236,
      "Ġstarts": 5237,
      "Ġsmell": 5238,
      "Ġartist": 5239,
      "Ġrealize": 5240,
      "ĠFrank": 5241,
      "Ġbasically": 5242,
      "Ġpositions": 5243,
      "iques": 5244,
      "itchen": 5245,
      "Ġaccompl": 5246,
      "Ġaid": 5247,
      "inct": 5248,
      "itz": 5249,
      "itness": 5250,
      "Ġhits": 5251,
      "enture": 5252,
      "ĠBoy": 5253,
      "Ġunit": 5254,
      "Ġdesire": 5255,
      "Ġactions": 5256,
      "Ġbrings": 5257,
      "ĠReview": 5258,
      "Ġincome": 5259,
      "Ġmanaged": 5260,
      "Ġrelevant": 5261,
      "Ġbringing": 5262,
      "Ġfocused": 5263,
      "Ġanimals": 5264,
      "Ġvictory": 5265,
      "Pl": 5266,
      "UC": 5267,
      "hered": 5268,
      "Ġbread": 5269,
      "Ġmouth": 5270,
      "lls": 5271,
      "Ġlaugh": 5272,
      "ette": 5273,
      "Ġwealth": 5274,
      "ĠPower": 5275,
      "ĠDet": 5276,
      "Ġride": 5277,
      "ĠForm": 5278,
      "ĠFather": 5279,
      "ĠEric": 5280,
      "oses": 5281,
      "Ġjail": 5282,
      "Ġprefer": 5283,
      "Ġcalling": 5284,
      "ĠArab": 5285,
      "anna": 5286,
      "Ġvision": 5287,
      "Ġpossibly": 5288,
      "Ġparticipants": 5289,
      "ĠCheck": 5290,
      "Ġsquare": 5291,
      "Ġbegins": 5292,
      "ollywood": 5293,
      "ĠSecretary": 5294,
      "ĠHalloween": 5295,
      "59": 5296,
      "cont": 5297,
      "mond": 5298,
      "Ġwal": 5299,
      "Ġboo": 5300,
      "arp": 5301,
      "oti": 5302,
      "amm": 5303,
      "ĠBoth": 5304,
      "ĠDistrict": 5305,
      "ĠRight": 5306,
      "Ġrough": 5307,
      "Ġplants": 5308,
      "Ġmanner": 5309,
      "Ġcommunities": 5310,
      "Ġremoved": 5311,
      "ĠProject": 5312,
      "Ġmedium": 5313,
      "Ġclassic": 5314,
      "Ġbroken": 5315,
      "Ġmatters": 5316,
      "ĠColor": 5317,
      "Ġinitial": 5318,
      "Ġconversation": 5319,
      "Rep": 5320,
      "Sc": 5321,
      "Ġspl": 5322,
      "âĢ¢": 5323,
      "acement": 5324,
      "imb": 5325,
      "ĠMuseum": 5326,
      "Ġshopping": 5327,
      "Ġchair": 5328,
      "Ġjoy": 5329,
      "Ġplate": 5330,
      "ressive": 5331,
      "Ġsecure": 5332,
      "Ġstrategy": 5333,
      "Ġresearc": 5334,
      "Ġwriter": 5335,
      "Ġeducational": 5336,
      "Ġholding": 5337,
      "Ġtreated": 5338,
      "Ġenjoyed": 5339,
      "Ġencourage": 5340,
      "Ġindependent": 5341,
      "hat": 5342,
      "overy": 5343,
      "Ġtaught": 5344,
      "inciples": 5345,
      "Ġcert": 5346,
      "anish": 5347,
      "ĠIll": 5348,
      "ĠSand": 5349,
      "ĠAP": 5350,
      "Ġforced": 5351,
      "ĠFire": 5352,
      "ĠNov": 5353,
      "Ġnoticed": 5354,
      "resp": 5355,
      "berg": 5356,
      "Ġminimum": 5357,
      "Ġsurface": 5358,
      "Ġdiscovered": 5359,
      "Ġdeveloping": 5360,
      "Ġmovies": 5361,
      "Ġdebt": 5362,
      "Ġwalked": 5363,
      "ĠGovernment": 5364,
      "ĠLibrary": 5365,
      "Ġacademic": 5366,
      "ĠDevelopment": 5367,
      "42": 5368,
      "Ad": 5369,
      "IV": 5370,
      "Oh": 5371,
      "kins": 5372,
      "ses": 5373,
      "Ġtree": 5374,
      "Ġwine": 5375,
      "ita": 5376,
      "oted": 5377,
      "ĠDi": 5378,
      "Ġprove": 5379,
      "Ġrac": 5380,
      "Ġchicken": 5381,
      "ourney": 5382,
      "Ġtwe": 5383,
      "Ġends": 5384,
      "Ġintended": 5385,
      "Ġcounty": 5386,
      "Ġallowing": 5387,
      "Ġmenu": 5388,
      "Ġfields": 5389,
      "Ġfunds": 5390,
      "Ġresponsibility": 5391,
      "ributed": 5392,
      "ynam": 5393,
      "Ġdestroy": 5394,
      "SP": 5395,
      "UN": 5396,
      "hab": 5397,
      "know": 5398,
      "Ġtro": 5399,
      "Ġbowl": 5400,
      "igration": 5401,
      "ĠWhe": 5402,
      "Ġsea": 5403,
      "ĠLong": 5404,
      "away": 5405,
      "Ġleads": 5406,
      "Ġbigger": 5407,
      "Ġletters": 5408,
      "ĠSea": 5409,
      "ĠIslam": 5410,
      "ATION": 5411,
      "Ġfaculty": 5412,
      "onym": 5413,
      "Ġsexual": 5414,
      "Ġmagazine": 5415,
      "Ġdelivery": 5416,
      "ĠFoundation": 5417,
      "02": 5418,
      "fr": 5419,
      "gment": 5420,
      "rehens": 5421,
      "itals": 5422,
      "Ġpm": 5423,
      "Ġpair": 5424,
      "Ġdial": 5425,
      "Ġthick": 5426,
      "adium": 5427,
      "Ġstars": 5428,
      "ĠMel": 5429,
      "irty": 5430,
      "Ġexchange": 5431,
      "orthern": 5432,
      "ĠJul": 5433,
      "aks": 5434,
      "Ġapplied": 5435,
      "Ġspect": 5436,
      "Ġcommitted": 5437,
      "ologists": 5438,
      "Ġsymb": 5439,
      "Ġassum": 5440,
      "Ġadvoc": 5441,
      "Ġelimin": 5442,
      "Ġdemocr": 5443,
      "Ġafford": 5444,
      "Ġoperating": 5445,
      "arrant": 5446,
      "Ġcombination": 5447,
      "Ġperspect": 5448,
      "Ġpulled": 5449,
      "ĠMusic": 5450,
      "Ġoccasion": 5451,
      "osterone": 5452,
      "Press": 5453,
      "Read": 5454,
      "water": 5455,
      "Ġwedding": 5456,
      "atures": 5457,
      "Ġlands": 5458,
      "semb": 5459,
      "ĠBur": 5460,
      "Ġclimate": 5461,
      "Ġcompared": 5462,
      "ĠVol": 5463,
      "cipl": 5464,
      "Ġadvance": 5465,
      "Ġdriver": 5466,
      "ĠBeach": 5467,
      "engers": 5468,
      "Ġvoters": 5469,
      "ĠAccording": 5470,
      "Ġpartnership": 5471,
      "Ġchallenges": 5472,
      "Ġcrazy": 5473,
      "57": 5474,
      "SE": 5475,
      "bar": 5476,
      "uated": 5477,
      "wo": 5478,
      "Ġâ": 5479,
      "inent": 5480,
      "rend": 5481,
      "Ġwire": 5482,
      "lets": 5483,
      "Ġlabor": 5484,
      "Ġrevenue": 5485,
      "ĠAut": 5486,
      "ĠBank": 5487,
      "romat": 5488,
      "ĠEnd": 5489,
      "Ġshares": 5490,
      "ĠOR": 5491,
      "osen": 5492,
      "alled": 5493,
      "Ġtrail": 5494,
      "Ġmere": 5495,
      "bert": 5496,
      "Ġgreatest": 5497,
      "Ġcriminal": 5498,
      "Ġexpensive": 5499,
      "Ġstanding": 5500,
      "Ġveter": 5501,
      "Ġchanging": 5502,
      "evin": 5503,
      "Ġdocuments": 5504,
      "Ġhonor": 5505,
      "Ġlaunched": 5506,
      "Ġreligious": 5507,
      "Ġobvious": 5508,
      "ĠBaseball": 5509,
      "amework": 5510,
      "41": 5511,
      "Des": 5512,
      "from": 5513,
      "rick": 5514,
      "Ġ)": 5515,
      "Ġaim": 5516,
      "Ġcore": 5517,
      "Ġbath": 5518,
      "Ġpitch": 5519,
      "Ġforces": 5520,
      "Ġstress": 5521,
      "cean": 5522,
      "ĠBest": 5523,
      "ĠBack": 5524,
      "ĠDie": 5525,
      "Ġconven": 5526,
      "Ġproud": 5527,
      "Ġbless": 5528,
      "Ġseeking": 5529,
      "Ġhelpful": 5530,
      "Ġbelong": 5531,
      "Ġincor": 5532,
      "Ġhandle": 5533,
      "phas": 5534,
      "Ġ90": 5535,
      "Ġbuildings": 5536,
      "Ġcomplaint": 5537,
      "Ġpicked": 5538,
      "Ġentirely": 5539,
      "aska": 5540,
      "ĠAbout": 5541,
      "Ġexercise": 5542,
      "IF": 5543,
      "life": 5544,
      "yer": 5545,
      "Â®": 5546,
      "orage": 5547,
      "ĠMajor": 5548,
      "Ġwearing": 5549,
      "Ġexhib": 5550,
      "ears": 5551,
      "Ġtele": 5552,
      "Ġspr": 5553,
      "ucks": 5554,
      "Ġseek": 5555,
      "ĠAdv": 5556,
      "Ġbreast": 5557,
      "Ġvideos": 5558,
      "Ġexperiences": 5559,
      "Ġmanufacture": 5560,
      "Ġinterpret": 5561,
      "OD": 5562,
      "tle": 5563,
      "top": 5564,
      "Ġpin": 5565,
      "Ġmole": 5566,
      "icon": 5567,
      "icit": 5568,
      "Ġstret": 5569,
      "ĠMot": 5570,
      "ĠBob": 5571,
      "ĠPenn": 5572,
      "ĠWhere": 5573,
      "Ġseat": 5574,
      "rible": 5575,
      "Ġchief": 5576,
      "aped": 5577,
      "odes": 5578,
      "Ġspoke": 5579,
      "Ġknowing": 5580,
      "Ġinstr": 5581,
      "ĠShow": 5582,
      "Ġbelief": 5583,
      "ĠOnly": 5584,
      "ĠMaybe": 5585,
      "ployment": 5586,
      "Ġpractices": 5587,
      "idden": 5588,
      "Ġfunding": 5589,
      "poses": 5590,
      "Ġcooking": 5591,
      "Ġjudge": 5592,
      "Ġcommunication": 5593,
      "Ġhundreds": 5594,
      "Ġcategory": 5595,
      "Ġepisode": 5596,
      "Ġcircumst": 5597,
      "iams": 5598,
      "lines": 5599,
      "pot": 5600,
      "ouch": 5601,
      "ala": 5602,
      "alian": 5603,
      "Ġlosing": 5604,
      "Ġgay": 5605,
      "ĠAward": 5606,
      "ĠBas": 5607,
      "Ġsevere": 5608,
      "ĠDou": 5609,
      "ĠRay": 5610,
      "Ġdelic": 5611,
      "ĠNick": 5612,
      "ĠLiber": 5613,
      "ĠON": 5614,
      "ĠUse": 5615,
      "pty": 5616,
      "Ġcompar": 5617,
      "Ġspok": 5618,
      "ĠArmy": 5619,
      "Ġapproximately": 5620,
      "Ġphotograph": 5621,
      "Ġperformed": 5622,
      "ĠMedical": 5623,
      "Ġfighting": 5624,
      "Ġassistance": 5625,
      "ĠAustralian": 5626,
      "rolled": 5627,
      "ĠJeff": 5628,
      "Ġcandidates": 5629,
      "ĠMartin": 5630,
      "ĠHistory": 5631,
      "ĠLouis": 5632,
      "Ġingred": 5633,
      "Col": 5634,
      "EE": 5635,
      "craft": 5636,
      "free": 5637,
      "host": 5638,
      "uild": 5639,
      "Ġsch": 5640,
      "Ġcry": 5641,
      "Ġcopyright": 5642,
      "orney": 5643,
      "Ġnone": 5644,
      "iration": 5645,
      "Ġweak": 5646,
      "ĠBush": 5647,
      "ĠDu": 5648,
      "ĠDuring": 5649,
      "Ġ(\"": 5650,
      "Ġexecutive": 5651,
      "Ġvan": 5652,
      "tered": 5653,
      "Ġquiet": 5654,
      "Ġuns": 5655,
      "Ġunivers": 5656,
      "lict": 5657,
      "Ġconsid": 5658,
      "Ġcreation": 5659,
      "Ġapproved": 5660,
      "Ġviews": 5661,
      "Ġfacilities": 5662,
      "Ġaccounts": 5663,
      "Ġidentify": 5664,
      "Also": 5665,
      "Ġhorse": 5666,
      "Ġholiday": 5667,
      "Ġlabel": 5668,
      "burg": 5669,
      "ĠAcademy": 5670,
      "First": 5671,
      "iser": 5672,
      "Ġbaking": 5673,
      "ingu": 5674,
      "Ġpal": 5675,
      "Ġmel": 5676,
      "Ġdance": 5677,
      "astern": 5678,
      "ige": 5679,
      "ĠHard": 5680,
      "ulous": 5681,
      "ĠOper": 5682,
      "ideo": 5683,
      "Ġcontest": 5684,
      "Ġfee": 5685,
      "cluding": 5686,
      "Ġearned": 5687,
      "Ġsurgery": 5688,
      "Ġnumerous": 5689,
      "Ġmilk": 5690,
      "cribe": 5691,
      "ĠSecond": 5692,
      "Ġscreening": 5693,
      "Ġsomewhere": 5694,
      "53": 5695,
      "Rec": 5696,
      "born": 5697,
      "cons": 5698,
      "zona": 5699,
      "Ġtips": 5700,
      "Ġcab": 5701,
      "Ġboot": 5702,
      "ĠSing": 5703,
      "ĠCD": 5704,
      "Ġstreet": 5705,
      "ĠMer": 5706,
      "ĠPeter": 5707,
      "Ġconclus": 5708,
      "ĠNA": 5709,
      "unction": 5710,
      "ĠLive": 5711,
      "Ġagencies": 5712,
      "Ġsport": 5713,
      "Ġprinc": 5714,
      "comp": 5715,
      "Ġdiscover": 5716,
      "uthors": 5717,
      "ĠExper": 5718,
      "Ġfilms": 5719,
      "Ġmissed": 5720,
      "Ġroute": 5721,
      "Ġproposed": 5722,
      "Ġsympt": 5723,
      "ĠVirginia": 5724,
      "Pe": 5725,
      "Ġtum": 5726,
      "Ġbond": 5727,
      "Ġfal": 5728,
      "arks": 5729,
      "ĠTown": 5730,
      "otal": 5731,
      "ada": 5732,
      "ads": 5733,
      "ĠRyan": 5734,
      "elcome": 5735,
      "Ġupcoming": 5736,
      "Ġagent": 5737,
      "Ġherself": 5738,
      "Ġrot": 5739,
      "Ġguarant": 5740,
      "ossible": 5741,
      "Ġserving": 5742,
      "Ġexpress": 5743,
      "Ġpurposes": 5744,
      "Ġtopic": 5745,
      "Ġmarried": 5746,
      "Ġswitch": 5747,
      "ĠAgain": 5748,
      "ĠMichigan": 5749,
      "ĠSeries": 5750,
      "Ġlaunch": 5751,
      "ĠValley": 5752,
      "Ġinspired": 5753,
      "Ġmillions": 5754,
      "Gr": 5755,
      "NA": 5756,
      "col": 5757,
      "ket": 5758,
      "rics": 5759,
      "arian": 5760,
      "Ġdatabase": 5761,
      "Ġstorm": 5762,
      "olve": 5763,
      "ĠHol": 5764,
      "agues": 5765,
      "ĠRuss": 5766,
      "abs": 5767,
      "ĠLast": 5768,
      "Ġshape": 5769,
      "Ġshipping": 5770,
      "Ġju": 5771,
      "Ġplenty": 5772,
      "ĠStr": 5773,
      "Ġdish": 5774,
      "Ġgoods": 5775,
      "Ġentered": 5776,
      "Ġefficient": 5777,
      "Ġpassword": 5778,
      "ĠClick": 5779,
      "Ġofficers": 5780,
      "Ġappearance": 5781,
      "Ġinternal": 5782,
      "Another": 5783,
      "Ġmeasures": 5784,
      "Ġdetermined": 5785,
      "ĠSenate": 5786,
      "Up": 5787,
      "dro": 5788,
      "eff": 5789,
      "Ġtight": 5790,
      "Ġreject": 5791,
      "Ġreli": 5792,
      "ĠMiller": 5793,
      "ĠPan": 5794,
      "Ġrandom": 5795,
      "ĠFox": 5796,
      "umber": 5797,
      "Ġshoes": 5798,
      "ocation": 5799,
      "Ġreserved": 5800,
      "Ġapparently": 5801,
      "ishop": 5802,
      "Ġguard": 5803,
      "198": 5804,
      "Ġwinner": 5805,
      "Ġ1999": 5806,
      "Ġveget": 5807,
      "incoln": 5808,
      "Ġcombined": 5809,
      "Ġexciting": 5810,
      "Ġ:)": 5811,
      "Ġstores": 5812,
      "Ġfailure": 5813,
      "Ġcells": 5814,
      "Ġdrinking": 5815,
      "Ġcandidate": 5816,
      "Ġcorporate": 5817,
      "Ġfabric": 5818,
      "Ġalleged": 5819,
      "CC": 5820,
      "LC": 5821,
      "Yes": 5822,
      "Ġerror": 5823,
      "Ġhurt": 5824,
      "ĠIT": 5825,
      "ĠRose": 5826,
      "Ġusual": 5827,
      "ĠStand": 5828,
      "Ġcontro": 5829,
      "Ġsupply": 5830,
      "Ġretire": 5831,
      "Ġformat": 5832,
      "Ġfunctions": 5833,
      "Ġobl": 5834,
      "Ġtalked": 5835,
      "ĠConference": 5836,
      "Ġdealing": 5837,
      "Ġcreative": 5838,
      "Ġspecifically": 5839,
      "Ġriver": 5840,
      "Ġexamples": 5841,
      "urban": 5842,
      "aniel": 5843,
      "Ġtonight": 5844,
      "Ġdangerous": 5845,
      "ĠDVD": 5846,
      ".|": 5847,
      "cher": 5848,
      "ship": 5849,
      "hem": 5850,
      "Ġsorry": 5851,
      "anke": 5852,
      "ĠSports": 5853,
      "ĠSouthern": 5854,
      "ĠCross": 5855,
      "ĠHy": 5856,
      "ĠHel": 5857,
      "Ġwaste": 5858,
      "Ġsector": 5859,
      "ĠList": 5860,
      "Ġjourney": 5861,
      "Ġworst": 5862,
      "ounded": 5863,
      "grade": 5864,
      "ocked": 5865,
      "Ġdecor": 5866,
      "Ġserver": 5867,
      "Ġcapacity": 5868,
      "Ġupdates": 5869,
      "Ġdegrees": 5870,
      "Ġmassive": 5871,
      "Ġtalks": 5872,
      "Ġbroadcast": 5873,
      "Ġvehicle": 5874,
      "Ġbrowser": 5875,
      "ĠDownload": 5876,
      "Ġrapid": 5877,
      "ĠCarolina": 5878,
      "App": 5879,
      "ga": 5880,
      "nel": 5881,
      "ya": 5882,
      "Ġmir": 5883,
      "icer": 5884,
      "Ġlunch": 5885,
      "ste": 5886,
      "ĠTake": 5887,
      "Ġprospect": 5888,
      "usi": 5889,
      "osis": 5890,
      "Ġtheme": 5891,
      "Ġrob": 5892,
      "Ġflo": 5893,
      "erman": 5894,
      "Ġrelax": 5895,
      "Ġcream": 5896,
      "Ġframe": 5897,
      "Ġfiled": 5898,
      "Ġoperation": 5899,
      "Ġfacility": 5900,
      "2011": 5901,
      "Ġdescribe": 5902,
      "Ġoccurred": 5903,
      "Ġdropped": 5904,
      "Ġdedicated": 5905,
      "Ġneighborhood": 5906,
      "American": 5907,
      "70": 5908,
      "IP": 5909,
      "eper": 5910,
      "lie": 5911,
      "swe": 5912,
      "Ġiron": 5913,
      "Ġaf": 5914,
      "inance": 5915,
      "Ġpush": 5916,
      "Ġgro": 5917,
      "achel": 5918,
      "ĠFil": 5919,
      "estic": 5920,
      "ĠNate": 5921,
      "Ġtrick": 5922,
      "Ġtraff": 5923,
      "Ġarrang": 5924,
      "Ġscr": 5925,
      "Ġflour": 5926,
      "Ġremaining": 5927,
      "ĠProte": 5928,
      "Ġstatements": 5929,
      "arsh": 5930,
      "Ġpassion": 5931,
      "efully": 5932,
      "Ġseconds": 5933,
      "Ġideal": 5934,
      "ERS": 5935,
      "Ġtypically": 5936,
      "Ġaccepted": 5937,
      "Ġorders": 5938,
      "secut": 5939,
      "Ġscientists": 5940,
      "Ġobviously": 5941,
      "Ġperspective": 5942,
      "ien": 5943,
      "look": 5944,
      "Ġ<": 5945,
      "Ġturning": 5946,
      "inn": 5947,
      "reens": 5948,
      "Ġhate": 5949,
      "ician": 5950,
      "oman": 5951,
      "olars": 5952,
      "ĠPubl": 5953,
      "ĠHave": 5954,
      "Ġconsequ": 5955,
      "ĠFind": 5956,
      "Ġgraph": 5957,
      "Ġdecades": 5958,
      "Ġadvanced": 5959,
      "Ġhoping": 5960,
      "Ġpromote": 5961,
      "ĠStep": 5962,
      "Ġreplace": 5963,
      "Ġpurchased": 5964,
      "Ġportion": 5965,
      "Ġloan": 5966,
      "ĠArizona": 5967,
      "HS": 5968,
      "iat": 5969,
      "uct": 5970,
      "Ġille": 5971,
      "heim": 5972,
      "asters": 5973,
      "ĠCle": 5974,
      "ĠBal": 5975,
      "Ġath": 5976,
      "ĠDan": 5977,
      "abled": 5978,
      "Ġsole": 5979,
      "ĠWeek": 5980,
      "ologist": 5981,
      "Ġdecade": 5982,
      "Ġlocations": 5983,
      "Ġpassengers": 5984,
      "Ġfunny": 5985,
      "Ġcharges": 5986,
      "Ġfactors": 5987,
      "Ġfriendly": 5988,
      "Ġconfident": 5989,
      "ĠOnline": 5990,
      "Ġtechnologies": 5991,
      "Ġreceiving": 5992,
      "Ġconnected": 5993,
      "ĠEnvironment": 5994,
      "Ġawareness": 5995,
      "Ġbirthday": 5996,
      "ĠTechnology": 5997,
      "ĠFrancisco": 5998,
      "51": 5999,
      "Every": 6000,
      "Im": 6001,
      "Today": 6002,
      "met": 6003,
      "Ġtables": 6004,
      "onna": 6005,
      "Ġsister": 6006,
      "isters": 6007,
      "ĠAud": 6008,
      "ula": 6009,
      "ĠFarm": 6010,
      "ĠNorm": 6011,
      "ĠJo": 6012,
      "Ġchocolate": 6013,
      "Ġplanned": 6014,
      "Ġarms": 6015,
      "Ġoffensive": 6016,
      "ĠHead": 6017,
      "ensation": 6018,
      "Ġregistered": 6019,
      "Ġsupports": 6020,
      "Ġconfirm": 6021,
      "Ġtechniques": 6022,
      "ESS": 6023,
      "ĠReport": 6024,
      "Ġindustrial": 6025,
      "Ġoptim": 6026,
      "ĠRepublicans": 6027,
      "Ġconsumers": 6028,
      "Ġshooting": 6029,
      "equ": 6030,
      "hi": 6031,
      "rad": 6032,
      "uit": 6033,
      "Ġ01": 6034,
      "reas": 6035,
      "enger": 6036,
      "Ġnav": 6037,
      "roid": 6038,
      "ĠCat": 6039,
      "ĠCub": 6040,
      "Ġstruct": 6041,
      "ĠWater": 6042,
      "ĠFort": 6043,
      "ĠEU": 6044,
      "Ġvast": 6045,
      "Ġchampions": 6046,
      "ĠInf": 6047,
      "Ġresolution": 6048,
      "enses": 6049,
      "Ġflood": 6050,
      "ĠAndrew": 6051,
      "Thanks": 6052,
      "ups": 6053,
      "Ġlovely": 6054,
      "Ġvisiting": 6055,
      "ĠBlue": 6056,
      "Ġtestosterone": 6057,
      "!!!!": 6058,
      "Ġblogs": 6059,
      "Ġofficer": 6060,
      "Ġoriginally": 6061,
      "ĠJews": 6062,
      "Ġcloser": 6063,
      "Ġsomewhat": 6064,
      "Ġextended": 6065,
      "Ġappreciate": 6066,
      "ĠMexico": 6067,
      "Ġsam": 6068,
      "esides": 6069,
      "Ġmur": 6070,
      "Ġfort": 6071,
      "ĠCA": 6072,
      "Ġsty": 6073,
      "ĠWin": 6074,
      "ĠWay": 6075,
      "ĠFund": 6076,
      "andon": 6077,
      "arted": 6078,
      "ĠUt": 6079,
      "Ġagents": 6080,
      "ibilities": 6081,
      "iano": 6082,
      "Ġshouldn": 6083,
      "Ġguests": 6084,
      "Ġregister": 6085,
      "Ġregulation": 6086,
      "Ġcarried": 6087,
      "Ġcrime": 6088,
      "Ġmarkets": 6089,
      "ĠPhill": 6090,
      "ĠDoes": 6091,
      "Ġfixed": 6092,
      "Ġlegislation": 6093,
      "Ġdisappoint": 6094,
      "Ġsubstant": 6095,
      "ĠVictor": 6096,
      "lastname": 6097,
      "Ġresearchers": 6098,
      "Ġfalse": 6099,
      "43": 6100,
      "95": 6101,
      "mary": 6102,
      "Ġerr": 6103,
      "Ġfruit": 6104,
      "Ġhors": 6105,
      "Ġreference": 6106,
      "uts": 6107,
      "acle": 6108,
      "ima": 6109,
      "uration": 6110,
      "essions": 6111,
      "Ġdelight": 6112,
      "ĠEr": 6113,
      "ĠElect": 6114,
      "ĠOK": 6115,
      "Ġkitchen": 6116,
      "Ġmeat": 6117,
      "Ġunf": 6118,
      "ĠVe": 6119,
      "Ġpregn": 6120,
      "Ġapproval": 6121,
      "ĠManager": 6122,
      "Ġcultural": 6123,
      "Ġillness": 6124,
      "ĠCanadian": 6125,
      "Ġfairly": 6126,
      "related": 6127,
      "ĠGermany": 6128,
      "Ġemergency": 6129,
      "rastructure": 6130,
      "Ġconstitution": 6131,
      "Ġweapons": 6132,
      "ĠHuman": 6133,
      "respond": 6134,
      "rehensive": 6135,
      "Ġcircumstances": 6136,
      "BN": 6137,
      "SO": 6138,
      "press": 6139,
      "uable": 6140,
      "Ġsick": 6141,
      "orters": 6142,
      "Ġburn": 6143,
      "Ġbunch": 6144,
      "icing": 6145,
      "ether": 6146,
      "iments": 6147,
      "lder": 6148,
      "ĠMs": 6149,
      "ĠMake": 6150,
      "ĠNight": 6151,
      "ĠLincoln": 6152,
      "Ġregistration": 6153,
      "Ġsmooth": 6154,
      "Ġcheap": 6155,
      "Ġpassing": 6156,
      "Ġtopics": 6157,
      "iki": 6158,
      "ĠPhot": 6159,
      "Ġdiet": 6160,
      "Ġoccup": 6161,
      "Ġvolume": 6162,
      "Ġsurprise": 6163,
      "Ġsurprised": 6164,
      "Ġviolence": 6165,
      "Ġwatched": 6166,
      "romatography": 6167,
      "break": 6168,
      "mates": 6169,
      "ye": 6170,
      "Ġid": 6171,
      "Ġtack": 6172,
      "Ġcraft": 6173,
      "Ġgather": 6174,
      "rost": 6175,
      "ĠCast": 6176,
      "ĠHen": 6177,
      "ĠHosp": 6178,
      "ĠDL": 6179,
      "ĠDaily": 6180,
      "Ġvillage": 6181,
      "ansas": 6182,
      "Ġmanage": 6183,
      "Ġresc": 6184,
      "Ġdiss": 6185,
      "Ġ36": 6186,
      "erves": 6187,
      "Ġrow": 6188,
      "Ġempty": 6189,
      "ĠProv": 6190,
      "Ġfollows": 6191,
      "Ġrealized": 6192,
      "Ġpotat": 6193,
      "Ġtaxes": 6194,
      "Ġcauses": 6195,
      "ĠSpecial": 6196,
      "LA": 6197,
      "Mr": 6198,
      "Ġsample": 6199,
      "Ġwest": 6200,
      "Ġbod": 6201,
      "Ġfold": 6202,
      "Ġnom": 6203,
      "amin": 6204,
      "ĠMa": 6205,
      "irmed": 6206,
      "olit": 6207,
      "ĠPac": 6208,
      "ĠPak": 6209,
      "Ġcontext": 6210,
      "Ġrum": 6211,
      "ĠNote": 6212,
      "ĠLittle": 6213,
      "Ġexcess": 6214,
      "Ġsuic": 6215,
      "Ġchosen": 6216,
      "ureau": 6217,
      "Ġunlike": 6218,
      "Ġdifferences": 6219,
      "Ġcrew": 6220,
      "Ġrepro": 6221,
      "ĠLead": 6222,
      "Ġmetal": 6223,
      "Ġimportance": 6224,
      "Ġkinds": 6225,
      "iscal": 6226,
      "Ġdiscussed": 6227,
      "Ġanticip": 6228,
      "Ġboys": 6229,
      "Ġultimately": 6230,
      "Ġrelatively": 6231,
      "FL": 6232,
      "HP": 6233,
      "Ste": 6234,
      "Since": 6235,
      "iors": 6236,
      "wr": 6237,
      "Ġodd": 6238,
      "Ġcorn": 6239,
      "Ġmo": 6240,
      "Ġmixt": 6241,
      "arl": 6242,
      "Ġdough": 6243,
      "ashed": 6244,
      "Ġelement": 6245,
      "Ġgarden": 6246,
      "otes": 6247,
      "aylor": 6248,
      "ĠAuthor": 6249,
      "ĠCe": 6250,
      "ĠWild": 6251,
      "ifer": 6252,
      "ĠHaw": 6253,
      "aren": 6254,
      "Ġanyway": 6255,
      "ulture": 6256,
      "eck": 6257,
      "Ġflight": 6258,
      "Ġedge": 6259,
      "Ġmoves": 6260,
      "Ġeffectively": 6261,
      "Ġconstant": 6262,
      "Ġdistance": 6263,
      "Ġnegative": 6264,
      "Ġflowers": 6265,
      "Ġhouses": 6266,
      "Ġhousing": 6267,
      "Ġprocedure": 6268,
      "Ġincredible": 6269,
      "Ġtherapy": 6270,
      "Ġcrisis": 6271,
      "77": 6272,
      "LY": 6273,
      "lers": 6274,
      "page": 6275,
      "ini": 6276,
      "Ġcute": 6277,
      "Ġgrown": 6278,
      "Ġforth": 6279,
      "Ġupper": 6280,
      "ĠMur": 6281,
      "ivered": 6282,
      "odd": 6283,
      "ĠItalian": 6284,
      "Ġscored": 6285,
      "Ġtwice": 6286,
      "Ġprinciples": 6287,
      "arma": 6288,
      "Ġseriously": 6289,
      "Ġdefensive": 6290,
      "Ġexplained": 6291,
      "Ġprompt": 6292,
      "Ġcomplain": 6293,
      "Ġparticipate": 6294,
      "Ġbeauty": 6295,
      "Ġmeetings": 6296,
      "Ġanswers": 6297,
      "Ġsuffering": 6298,
      "Ġmotiv": 6299,
      "Ġprimarily": 6300,
      "ĠOhio": 6301,
      "Ġfrequently": 6302,
      "Ġbirds": 6303,
      "mosp": 6304,
      "rum": 6305,
      "uations": 6306,
      "yard": 6307,
      "Â·": 6308,
      "isdom": 6309,
      "ora": 6310,
      "Ġpu": 6311,
      "Ġhitting": 6312,
      "ache": 6313,
      "ĠAff": 6314,
      "ĠCode": 6315,
      "imp": 6316,
      "Ġyouth": 6317,
      "Ġstamp": 6318,
      "ĠMen": 6319,
      "ĠFamily": 6320,
      "this": 6321,
      "ĠLee": 6322,
      "ĠOk": 6323,
      "ĠJon": 6324,
      "Ġneither": 6325,
      "icted": 6326,
      "Ġowned": 6327,
      "print": 6328,
      "azon": 6329,
      "ĠAnother": 6330,
      "Ġissued": 6331,
      "ĠAdministr": 6332,
      "Ġ07": 6333,
      "Ġsky": 6334,
      "Ġbrown": 6335,
      "Ġbasket": 6336,
      "Ġpayment": 6337,
      "Ġdistribution": 6338,
      "Ġswim": 6339,
      "ĠEngine": 6340,
      "Ġtradition": 6341,
      "Ġinvolve": 6342,
      "Ġtrees": 6343,
      "ĠWilliams": 6344,
      "Ġpersons": 6345,
      "Ġfellow": 6346,
      "Ġsymptoms": 6347,
      "Add": 6348,
      "En": 6349,
      "HD": 6350,
      "Te": 6351,
      "Â©": 6352,
      "Ġauthors": 6353,
      "hemat": 6354,
      "Ġcin": 6355,
      "Ġcooper": 6356,
      "Ġfool": 6357,
      "Ġhur": 6358,
      "ican": 6359,
      "sts": 6360,
      "lym": 6361,
      "Ġstorage": 6362,
      "ĠBi": 6363,
      "ĠFo": 6364,
      "ĠLight": 6365,
      "Ġadapt": 6366,
      "Ġsauce": 6367,
      "Ġenforce": 6368,
      "ĠKim": 6369,
      "Ġblow": 6370,
      "Ġunderst": 6371,
      "ĠReal": 6372,
      "Ġimpossible": 6373,
      "ĠProduct": 6374,
      "ĠSpanish": 6375,
      "Ġrecorded": 6376,
      "Ġpolitics": 6377,
      "Ġreasonable": 6378,
      "Ġconcerning": 6379,
      "ĠJustice": 6380,
      "Ġmotion": 6381,
      "Ġdeeply": 6382,
      "Ġaffected": 6383,
      "Click": 6384,
      "ĠTurkey": 6385,
      "Ġprocedures": 6386,
      "Ġnewspaper": 6387,
      "Many": 6388,
      "Of": 6389,
      "SU": 6390,
      "greg": 6391,
      "post": 6392,
      "sm": 6393,
      "va": 6394,
      "reener": 6395,
      "Ġcable": 6396,
      "Ġthinks": 6397,
      "Ġloves": 6398,
      "Ġreduced": 6399,
      "ĠPage": 6400,
      "uls": 6401,
      "ĠFair": 6402,
      "unning": 6403,
      "Ġchannel": 6404,
      "Ġabuse": 6405,
      "Ġjew": 6406,
      "Ġadm": 6407,
      "ensus": 6408,
      "Ġamb": 6409,
      "liament": 6410,
      "Ġacknow": 6411,
      "ancer": 6412,
      "Ġfeelings": 6413,
      "Ġdefined": 6414,
      "Ġinfrastructure": 6415,
      "Ġsolar": 6416,
      "Ġfoods": 6417,
      "Ġwrites": 6418,
      "AND": 6419,
      "ournament": 6420,
      "Ġholds": 6421,
      "Ġcutting": 6422,
      "Ġreviews": 6423,
      "Ġperfectly": 6424,
      "Ġordered": 6425,
      "Ġcalc": 6426,
      "ĠAccount": 6427,
      "ĠJewish": 6428,
      "ĠIrish": 6429,
      "Ġconservative": 6430,
      "Ġcomponents": 6431,
      "ĠDigital": 6432,
      "86": 6433,
      "game": 6434,
      "ione": 6435,
      "Ġlies": 6436,
      "Ġlists": 6437,
      "rog": 6438,
      "road": 6439,
      "Ġbeer": 6440,
      "ĠSP": 6441,
      "adow": 6442,
      "Ġstood": 6443,
      "ĠBible": 6444,
      "rip": 6445,
      "ĠGal": 6446,
      "Ġresident": 6447,
      "anging": 6448,
      "Ġroot": 6449,
      "Ġdesk": 6450,
      "Thank": 6451,
      "Ġemphas": 6452,
      "Ġstands": 6453,
      "Ġtests": 6454,
      "Ġplane": 6455,
      "Ġpresentation": 6456,
      "ĠSyrian": 6457,
      "Ġbreakfast": 6458,
      "ĠMinister": 6459,
      "ĠNext": 6460,
      "Ġdrawing": 6461,
      "Ġcelebrate": 6462,
      "Ġrelationships": 6463,
      "ĠCharles": 6464,
      "Ġclinical": 6465,
      "Ġenemy": 6466,
      "Can": 6467,
      "has": 6468,
      "west": 6469,
      "inations": 6470,
      "real": 6471,
      "itage": 6472,
      "Ġcru": 6473,
      "orough": 6474,
      "Ġbike": 6475,
      "alle": 6476,
      "Ġdynam": 6477,
      "Ġlit": 6478,
      "Ġgifts": 6479,
      "ĠCSI": 6480,
      "amel": 6481,
      "ĠMatt": 6482,
      "ĠDream": 6483,
      "arts": 6484,
      "Ġalive": 6485,
      "Ġchat": 6486,
      "Ġoffense": 6487,
      "class": 6488,
      "Ġjustice": 6489,
      "Ġ37": 6490,
      "Ġcovers": 6491,
      "Ġcommittee": 6492,
      "Ġphil": 6493,
      "Ġentit": 6494,
      "ĠLeg": 6495,
      "tenance": 6496,
      "Ġkeeps": 6497,
      "ĠTele": 6498,
      "Ġ1998": 6499,
      "Ġpaying": 6500,
      "Ġproperly": 6501,
      "profit": 6502,
      "Ġfeatured": 6503,
      "orgia": 6504,
      "ĠPalest": 6505,
      "Ġsurprising": 6506,
      "Ġtalent": 6507,
      "Ġmixed": 6508,
      "Ġessential": 6509,
      "Ġadults": 6510,
      "ĠJudge": 6511,
      "Ġrepeated": 6512,
      "Ġtickets": 6513,
      "ĠRoyal": 6514,
      "96": 6515,
      "can": 6516,
      "foot": 6517,
      "zer": 6518,
      "Ġsan": 6519,
      "Ġwitness": 6520,
      "Ġwisdom": 6521,
      "orld": 6522,
      "Ġflex": 6523,
      "ĠSon": 6524,
      "ĠSup": 6525,
      "ĠMiddle": 6526,
      "ĠDid": 6527,
      "atell": 6528,
      "rive": 6529,
      "emporary": 6530,
      "ĠNC": 6531,
      "ortion": 6532,
      "Ġjoint": 6533,
      "ĠKen": 6534,
      "ĠKenn": 6535,
      "Ġunion": 6536,
      "Ġcheese": 6537,
      "Ġhappening": 6538,
      "Ġinvestors": 6539,
      "Ġfundament": 6540,
      "Ġidentity": 6541,
      "Ġsufficient": 6542,
      "Ġhospitals": 6543,
      "Ġdomain": 6544,
      "Ġengineering": 6545,
      "Ġscheduled": 6546,
      "Ġscientific": 6547,
      "iciency": 6548,
      "Ġclothes": 6549,
      "Ġcommitment": 6550,
      "Ġsymbol": 6551,
      "Ġingredients": 6552,
      "Ġtraffic": 6553,
      "Spe": 6554,
      "eed": 6555,
      "yes": 6556,
      "Ġtun": 6557,
      "Ġsight": 6558,
      "atre": 6559,
      "Ġlin": 6560,
      "Ġlie": 6561,
      "ĠSE": 6562,
      "ading": 6563,
      "ĠWalk": 6564,
      "ĠDisc": 6565,
      "ĠFour": 6566,
      "ellect": 6567,
      "ĠExt": 6568,
      "earing": 6569,
      "gend": 6570,
      "raid": 6571,
      "Ġdisabilities": 6572,
      "Ġdiscipl": 6573,
      "Ġgranted": 6574,
      "weet": 6575,
      "ĠRev": 6576,
      "Ġrelief": 6577,
      "Ġposting": 6578,
      "ĠOrder": 6579,
      "Ġproperties": 6580,
      "Ġreturns": 6581,
      "Ġprofessor": 6582,
      "Ġsuggested": 6583,
      "Ġprepare": 6584,
      "Ġdrugs": 6585,
      "ĠRockwell": 6586,
      "Ġcycle": 6587,
      "ĠTurk": 6588,
      "90": 6589,
      "Res": 6590,
      "giving": 6591,
      "wing": 6592,
      "eries": 6593,
      "Ġoven": 6594,
      "Ġfaster": 6595,
      "Ġgrew": 6596,
      "uted": 6597,
      "ĠSub": 6598,
      "ĠCEO": 6599,
      "Ġatmosp": 6600,
      "Ġconcent": 6601,
      "acked": 6602,
      "ogs": 6603,
      "Ġsav": 6604,
      "anny": 6605,
      "Ġcharged": 6606,
      "Ġprofile": 6607,
      "ĠExhibit": 6608,
      "ographic": 6609,
      "Ġmoments": 6610,
      "ĠEnter": 6611,
      "Ġbatter": 6612,
      "Ġautomatically": 6613,
      "ĠSarah": 6614,
      "Day": 6615,
      "Like": 6616,
      "Most": 6617,
      "coh": 6618,
      "ipper": 6619,
      "list": 6620,
      "rance": 6621,
      "sen": 6622,
      "Ġcou": 6623,
      "orne": 6624,
      "Ġfra": 6625,
      "Ġpock": 6626,
      "Ġpitc": 6627,
      "Ġhun": 6628,
      "ĠMo": 6629,
      "iry": 6630,
      "ĠBon": 6631,
      "ĠBat": 6632,
      "ĠWars": 6633,
      "ĠDam": 6634,
      "Ġvary": 6635,
      "Ġshots": 6636,
      "acking": 6637,
      "Ġteen": 6638,
      "Ġcloud": 6639,
      "ĠStaff": 6640,
      "ĠKnow": 6641,
      "ĠYanke": 6642,
      "Ġweren": 6643,
      "Ġblind": 6644,
      "Ġpoll": 6645,
      "Ġeverybody": 6646,
      "Ġcommission": 6647,
      "Ġbrill": 6648,
      "Ġremark": 6649,
      "Ġremote": 6650,
      "encing": 6651,
      "Ġmini": 6652,
      "Ġtransition": 6653,
      "Ġinfect": 6654,
      "Ġincreases": 6655,
      "ĠBrad": 6656,
      "ĠÂ©": 6657,
      "ĠSteve": 6658,
      "ĠGuide": 6659,
      "ĠWilson": 6660,
      "Ġentertainment": 6661,
      "ĠColorado": 6662,
      "ĠDiego": 6663,
      "Ke": 6664,
      "Where": 6665,
      "awn": 6666,
      "Ġurban": 6667,
      "Ġcas": 6668,
      "oration": 6669,
      "Ġreward": 6670,
      "ĠSuch": 6671,
      "aying": 6672,
      "ownt": 6673,
      "ĠMP": 6674,
      "ilit": 6675,
      "ĠDO": 6676,
      "ĠFollow": 6677,
      "ighter": 6678,
      "ĠEqu": 6679,
      "Ġsuc": 6680,
      "Ġfirstname": 6681,
      "xtel": 6682,
      "Ġassume": 6683,
      "Ġstrange": 6684,
      "Ġmoder": 6685,
      "Ġsupporting": 6686,
      "Ġfacts": 6687,
      "Ġbelieves": 6688,
      "ducing": 6689,
      "Ġextensive": 6690,
      "Ġcapable": 6691,
      "Ġbroke": 6692,
      "EST": 6693,
      "iveness": 6694,
      "Ġlargely": 6695,
      "Ġfaces": 6696,
      "Ġcuts": 6697,
      "2010": 6698,
      "REE": 6699,
      "Ġinstalled": 6700,
      "Ġinstallation": 6701,
      "Ġattacks": 6702,
      "Ġexception": 6703,
      "Ġnegoti": 6704,
      "Ġinstitution": 6705,
      "Ġeggs": 6706,
      "Ġbreath": 6707,
      "idelines": 6708,
      "Ġmaximum": 6709,
      "Ġfavour": 6710,
      "Ġstretch": 6711,
      "CR": 6712,
      "tion": 6713,
      "ati": 6714,
      "orse": 6715,
      "Ġfuck": 6716,
      "Ġfulf": 6717,
      "eding": 6718,
      "arge": 6719,
      "arrow": 6720,
      "Ġduty": 6721,
      "Ġeast": 6722,
      "ĠSqu": 6723,
      "Ġstuck": 6724,
      "Ġhero": 6725,
      "ĠHD": 6726,
      "ĠHon": 6727,
      "ĠRon": 6728,
      "estion": 6729,
      "ĠLook": 6730,
      "ĠGirl": 6731,
      "Ġchromatography": 6732,
      "Ġtruck": 6733,
      "ĠKn": 6734,
      "Ġtwenty": 6735,
      "Ġphr": 6736,
      "prise": 6737,
      "Ġdecre": 6738,
      "ahoo": 6739,
      "Ġedition": 6740,
      "Ġsigns": 6741,
      "oking": 6742,
      "ĠExecutive": 6743,
      "ĠBefore": 6744,
      "Ġhopes": 6745,
      "ĠColumb": 6746,
      "Ġchecked": 6747,
      "Ġwebsites": 6748,
      "Ġsentence": 6749,
      "Ġfalling": 6750,
      "Ġmagn": 6751,
      "Ġconvention": 6752,
      "ĠRecord": 6753,
      "Ġopinions": 6754,
      "Ġdepth": 6755,
      "ĠInte": 6756,
      "Ġrevealed": 6757,
      "Ġfifth": 6758,
      "About": 6759,
      "Ġconsidering": 6760,
      "Ġafraid": 6761,
      "Follow": 6762,
      "VI": 6763,
      "bre": 6764,
      "dr": 6765,
      "ml": 6766,
      "uitary": 6767,
      "Ġ;": 6768,
      "Ġfle": 6769,
      "Ġflying": 6770,
      "Ġpp": 6771,
      "Ġpil": 6772,
      "aming": 6773,
      "ĠMic": 6774,
      "ĠPass": 6775,
      "Ġseasons": 6776,
      "ĠRSS": 6777,
      "Ġconclud": 6778,
      "ĠField": 6779,
      "ĠFederal": 6780,
      "ĠLind": 6781,
      "ĠEth": 6782,
      "Ġalt": 6783,
      "ĠJenn": 6784,
      "aka": 6785,
      "ĠIns": 6786,
      "ĠInvest": 6787,
      "eping": 6788,
      "ĠChief": 6789,
      "Ġgrade": 6790,
      "Ġ45": 6791,
      "Ġsurvey": 6792,
      "Ġgotten": 6793,
      "Ġexplore": 6794,
      "Ġexplos": 6795,
      "Ġconstruct": 6796,
      "ITY": 6797,
      "Ġidentified": 6798,
      "Ġillustr": 6799,
      "Ġcupc": 6800,
      "However": 6801,
      "Ġrecommended": 6802,
      "Ġholes": 6803,
      "suit": 6804,
      "Ġinformed": 6805,
      "ĠBraves": 6806,
      "Ġincreasingly": 6807,
      "Ġaccurate": 6808,
      "Am": 6809,
      "FC": 6810,
      "PM": 6811,
      "SD": 6812,
      "Sp": 6813,
      "Us": 6814,
      "ugh": 6815,
      "Ġfing": 6816,
      "Ġlayer": 6817,
      "ĠTal": 6818,
      "ĠSaf": 6819,
      "sell": 6820,
      "imens": 6821,
      "Ġstup": 6822,
      "iform": 6823,
      "ĠHur": 6824,
      "ĠRights": 6825,
      "eman": 6826,
      "ĠFOR": 6827,
      "elph": 6828,
      "ĠOlym": 6829,
      "ĠâĢ¢": 6830,
      "Ġhasn": 6831,
      "Ġresource": 6832,
      "Ġapps": 6833,
      "Ġperman": 6834,
      "Ġhereto": 6835,
      "Ġenth": 6836,
      "elly": 6837,
      "annels": 6838,
      "Ġlistening": 6839,
      "Ġglad": 6840,
      "Ġextension": 6841,
      "Ġconstantly": 6842,
      "Ġpackages": 6843,
      "Ġlatter": 6844,
      "Ġstrike": 6845,
      "Ġnormally": 6846,
      "Ġdelivered": 6847,
      "Ġsubsid": 6848,
      "Ġdollar": 6849,
      "Ġutil": 6850,
      "Ġconducted": 6851,
      "Ġaspects": 6852,
      "Ġintelligence": 6853,
      "ĠMLB": 6854,
      "Ġsuddenly": 6855,
      "Ġmixture": 6856,
      "Other": 6857,
      "mes": 6858,
      "pat": 6859,
      "then": 6860,
      "inating": 6861,
      "Ġwarrant": 6862,
      "orp": 6863,
      "Ġfiscal": 6864,
      "arry": 6865,
      "Ġhat": 6866,
      "Ġhook": 6867,
      "entle": 6868,
      "stone": 6869,
      "lyn": 6870,
      "ĠTer": 6871,
      "ĠSign": 6872,
      "Ġisland": 6873,
      "ĠCall": 6874,
      "olved": 6875,
      "ĠBull": 6876,
      "ĠPot": 6877,
      "ĠPoint": 6878,
      "ĠHa": 6879,
      "ria": 6880,
      "rier": 6881,
      "Ġconver": 6882,
      "ppers": 6883,
      "ĠFoot": 6884,
      "Ġexecut": 6885,
      "eline": 6886,
      "Ġvital": 6887,
      "Ġclimb": 6888,
      "ĠKh": 6889,
      "Ġcomprehensive": 6890,
      "Ġ300": 6891,
      "Ġspin": 6892,
      "rene": 6893,
      "Ġflav": 6894,
      "raph": 6895,
      "Ġsolve": 6896,
      "Ġimproved": 6897,
      "ĠSupport": 6898,
      "Ġzone": 6899,
      "Ġvisitors": 6900,
      "Ġtypical": 6901,
      "Ġtraveling": 6902,
      "Ġrecognized": 6903,
      "Ġwalls": 6904,
      "Ġobtained": 6905,
      "CD": 6906,
      "Che": 6907,
      "Gu": 6908,
      "Ind": 6909,
      "Sub": 6910,
      "Will": 6911,
      "she": 6912,
      "inet": 6913,
      "inity": 6914,
      "reets": 6915,
      "Ġthread": 6916,
      "ĠSus": 6917,
      "Ġisol": 6918,
      "ĠClear": 6919,
      "Ġstake": 6920,
      "ĠPop": 6921,
      "Ġaside": 6922,
      "Ġven": 6923,
      "allow": 6924,
      "Ġlect": 6925,
      "Then": 6926,
      "berry": 6927,
      "ĠKevin": 6928,
      "Ġunable": 6929,
      "inking": 6930,
      "Ġflavor": 6931,
      "Ġdescription": 6932,
      "pected": 6933,
      "Ġguest": 6934,
      "Ġpossibility": 6935,
      "Ġcorrespond": 6936,
      "Ġprocesses": 6937,
      "Ġ1990": 6938,
      "Ġtrend": 6939,
      "Ġauthority": 6940,
      "Ġinnings": 6941,
      "Ġreligion": 6942,
      "Ġvehicles": 6943,
      "Ġliked": 6944,
      "Ġescape": 6945,
      "Ġinstructions": 6946,
      "Ġadvertising": 6947,
      "Ġarrested": 6948,
      "ĠHospital": 6949,
      "88": 6950,
      "RC": 6951,
      "View": 6952,
      "cur": 6953,
      "hop": 6954,
      "power": 6955,
      "ta": 6956,
      "ua": 6957,
      "ãĤ": 6958,
      "Ġtheory": 6959,
      "Ġpig": 6960,
      "eder": 6961,
      "Ġmal": 6962,
      "Ġhung": 6963,
      "Ġlangu": 6964,
      "Ġnurs": 6965,
      "utter": 6966,
      "ĠSk": 6967,
      "ĠCON": 6968,
      "ĠCreek": 6969,
      "iger": 6970,
      "Ġsending": 6971,
      "ĠData": 6972,
      "ĠRoom": 6973,
      "ĠLA": 6974,
      "Ġexists": 6975,
      "eless": 6976,
      "Ġdoctors": 6977,
      "izz": 6978,
      "Ġsomehow": 6979,
      "ĠYet": 6980,
      "ĠChampions": 6981,
      "Ġrecording": 6982,
      "ocking": 6983,
      "Ġsmile": 6984,
      "Ġsyn": 6985,
      "Ġsubmit": 6986,
      "Ġfrag": 6987,
      "Ġcarefully": 6988,
      "Ġexpressed": 6989,
      "ĠSeattle": 6990,
      "Ġ1997": 6991,
      "ĠIndust": 6992,
      "Ġengaged": 6993,
      "Ġemployee": 6994,
      "Ġdifficulty": 6995,
      "Ġnecessarily": 6996,
      "ĠSeraph": 6997,
      "Ġcouncil": 6998,
      "Ġappeal": 6999,
      "Ġconsumer": 7000,
      "Ġpanel": 7001,
      "ĠRoman": 7002,
      "ĠIran": 7003,
      "Ġconsistent": 7004,
      "Ġinstitutions": 7005,
      "ĠISBN": 7006,
      "TML": 7007,
      "Ġillegal": 7008,
      "Ġathlet": 7009,
      "Ġhorses": 7010,
      "Ġsucceed": 7011,
      "ĠSeraphim": 7012,
      "?)": 7013,
      "aud": 7014,
      "bel": 7015,
      "ca": 7016,
      "cious": 7017,
      "law": 7018,
      "pire": 7019,
      "rell": 7020,
      "erts": 7021,
      "Ġox": 7022,
      "orb": 7023,
      "Ġmand": 7024,
      "ĠTaylor": 7025,
      "ĠSir": 7026,
      "ĠCN": 7027,
      "ĠMaster": 7028,
      "Ġwhis": 7029,
      "ĠHoo": 7030,
      "ulatory": 7031,
      "apes": 7032,
      "Ġcontrast": 7033,
      "Ġoffices": 7034,
      "Ġunits": 7035,
      "ava": 7036,
      "ĠVers": 7037,
      "ĠView": 7038,
      "Ġscream": 7039,
      "Ġindex": 7040,
      "Ġinvited": 7041,
      "Ġworldwide": 7042,
      "Ġ75": 7043,
      "Ġdefault": 7044,
      "Who": 7045,
      "Ġfactor": 7046,
      "Ġskill": 7047,
      "Ġclassroom": 7048,
      "Ġconfidence": 7049,
      "ĠConstitution": 7050,
      "Ġpromise": 7051,
      "Ġmaintenance": 7052,
      "Ġrisks": 7053,
      "Ġaudio": 7054,
      "ĠGeorgia": 7055,
      "Ġcounsel": 7056,
      "Ġimmigr": 7057,
      "Ġbags": 7058,
      "Ġdelay": 7059,
      "ĠBritain": 7060,
      "Ġwidely": 7061,
      "Ġcommunications": 7062,
      "boks": 7063,
      "Ġassigned": 7064,
      "Ġchemical": 7065,
      "onymous": 7066,
      "swered": 7067,
      ",'": 7068,
      "800": 7069,
      "Find": 7070,
      "Go": 7071,
      "Jan": 7072,
      "UL": 7073,
      "fol": 7074,
      "kes": 7075,
      "lvan": 7076,
      "parent": 7077,
      "Ã¼": 7078,
      "rek": 7079,
      "oured": 7080,
      "oty": 7081,
      "ĠCopyright": 7082,
      "ĠMS": 7083,
      "Ġanswered": 7084,
      "ĠRam": 7085,
      "unior": 7086,
      "umes": 7087,
      "ĠLin": 7088,
      "elry": 7089,
      "Ġchoices": 7090,
      "orders": 7091,
      "Ġ32": 7092,
      "Ġfees": 7093,
      "Ġcoast": 7094,
      "Ġ400": 7095,
      "Ġinches": 7096,
      "Ġpersonally": 7097,
      "Ġprogramming": 7098,
      "Ġpublication": 7099,
      "ĠOrgan": 7100,
      "Ġintellect": 7101,
      "ĠSteven": 7102,
      "Ġexistence": 7103,
      "ĠStudies": 7104,
      "Ġinterviews": 7105,
      "Ġprofessionals": 7106,
      "64": 7107,
      "67": 7108,
      "Su": 7109,
      "VER": 7110,
      "burn": 7111,
      "war": 7112,
      "Ã¢": 7113,
      "Ġtut": 7114,
      "Ġtag": 7115,
      "Ġtail": 7116,
      "Ġtape": 7117,
      "Ġsoup": 7118,
      "Ġsacr": 7119,
      "orable": 7120,
      "Ġfilling": 7121,
      "Ġhorm": 7122,
      "asks": 7123,
      "utation": 7124,
      "ĠSky": 7125,
      "ĠCost": 7126,
      "amber": 7127,
      "ceived": 7128,
      "ĠLab": 7129,
      "ĠGive": 7130,
      "ĠOl": 7131,
      "ĠJr": 7132,
      "Ġneck": 7133,
      "Ġclar": 7134,
      "Ġdisability": 7135,
      "Ġrecon": 7136,
      "Ġprayer": 7137,
      "endment": 7138,
      "Ġsurf": 7139,
      "Ġmonthly": 7140,
      "Ġadvis": 7141,
      "Ġcontinuing": 7142,
      "Ġprocessing": 7143,
      "Ġplanet": 7144,
      "Ġtemporary": 7145,
      "Ġclaimed": 7146,
      "backs": 7147,
      "Ġlinked": 7148,
      "Ġvoted": 7149,
      "Ġcups": 7150,
      "ĠMarket": 7151,
      "iverse": 7152,
      "Ġobjects": 7153,
      "Ġmedication": 7154,
      "Ġmountain": 7155,
      "Ġlikes": 7156,
      "Ġvolunteer": 7157,
      "ĠJoseph": 7158,
      "Ġpleasure": 7159,
      "AY": 7160,
      "Copyright": 7161,
      "Over": 7162,
      "Part": 7163,
      "afe": 7164,
      "ba": 7165,
      "yo": 7166,
      "Ġterr": 7167,
      "rec": 7168,
      "Ġwet": 7169,
      "isation": 7170,
      "isons": 7171,
      "Ġhole": 7172,
      "Ġthin": 7173,
      "Ġnations": 7174,
      "stra": 7175,
      "âĢĺ": 7176,
      "rot": 7177,
      "Ġstim": 7178,
      "ĠHollywood": 7179,
      "ĠRest": 7180,
      "Ġ($": 7181,
      "oper": 7182,
      "opher": 7183,
      "ĠNever": 7184,
      "ums": 7185,
      "ĠLy": 7186,
      "Ġchain": 7187,
      "Ġoutput": 7188,
      "ĠChair": 7189,
      "Ġpermission": 7190,
      "Ġ38": 7191,
      "inton": 7192,
      "endar": 7193,
      "omething": 7194,
      "cience": 7195,
      "Ġprescription": 7196,
      "Ġincident": 7197,
      "Ġdiscount": 7198,
      "ĠClin": 7199,
      "Ġinfo": 7200,
      "Ġreporting": 7201,
      "Ġvaluable": 7202,
      "Ġ1995": 7203,
      "ennis": 7204,
      "Ġmarks": 7205,
      "arrass": 7206,
      "Ġmoral": 7207,
      "ĠBrother": 7208,
      "Ġjoining": 7209,
      "ĠPeace": 7210,
      "ĠParis": 7211,
      "Ġfemales": 7212,
      "Ġapartment": 7213,
      "Ġliterally": 7214,
      "Ġpituitary": 7215,
      "Ġpowder": 7216,
      "ĠAtlanta": 7217,
      "ĠâĨ": 7218,
      "Ġinstrument": 7219,
      "Ġunderstood": 7220,
      "Ġbanks": 7221,
      "aning": 7222,
      "anwhile": 7223,
      "Ġmuseum": 7224,
      "lete": 7225,
      "Ġnarrow": 7226,
      "Ġec": 7227,
      "ĠSU": 7228,
      "ĠSearch": 7229,
      "ĠAwards": 7230,
      "ilty": 7231,
      "ĠHom": 7232,
      "ĠLes": 7233,
      "ĠGen": 7234,
      "ĠGra": 7235,
      "ĠGames": 7236,
      "Ġexternal": 7237,
      "ĠEp": 7238,
      "ĠEastern": 7239,
      "Ġdoors": 7240,
      "Ġsaved": 7241,
      "ĠThrough": 7242,
      "Ġcoordin": 7243,
      "ampion": 7244,
      "Ġprovision": 7245,
      "Ġremained": 7246,
      "Ġreader": 7247,
      "elling": 7248,
      "Ġassets": 7249,
      "Ġfinds": 7250,
      "thew": 7251,
      "Ġformed": 7252,
      "Ġpurs": 7253,
      "Ġconfirmed": 7254,
      "ĠMarl": 7255,
      "appy": 7256,
      "ĠWithout": 7257,
      "Ġconsideration": 7258,
      "ĠControl": 7259,
      "Ġvoting": 7260,
      "ĠPolicy": 7261,
      "Ġ1970": 7262,
      "Ġdepending": 7263,
      "Ġneighb": 7264,
      "Ġintroduced": 7265,
      "ĠKey": 7266,
      "Ġslowly": 7267,
      "Ġemotional": 7268,
      "ĠProfessor": 7269,
      "ĠQueen": 7270,
      "Ġfantastic": 7271,
      "Ġboost": 7272,
      "Ġdelicious": 7273,
      "cohol": 7274,
      "68": 7275,
      "Man": 7276,
      "Mar": 7277,
      "door": 7278,
      "via": 7279,
      "viously": 7280,
      "rete": 7281,
      "Ġdivid": 7282,
      "stream": 7283,
      "Ġreaction": 7284,
      "Ġbeach": 7285,
      "utch": 7286,
      "Ġforgot": 7287,
      "ĠCam": 7288,
      "Ġheav": 7289,
      "Ġasks": 7290,
      "ĠWat": 7291,
      "ĠWomen": 7292,
      "ifies": 7293,
      "ĠFestival": 7294,
      "thon": 7295,
      "aby": 7296,
      "ĠLu": 7297,
      "elle": 7298,
      "osoph": 7299,
      "Ġchannels": 7300,
      "aste": 7301,
      "ogen": 7302,
      "Ġadmit": 7303,
      "ansion": 7304,
      "ĠStadium": 7305,
      "ults": 7306,
      "Ġdisag": 7307,
      "Ġ48": 7308,
      "Ġcolour": 7309,
      "Ġimpressive": 7310,
      "Ġexperts": 7311,
      "Ġtransform": 7312,
      "Ġdevelopers": 7313,
      "Ġ03": 7314,
      "Ġpractical": 7315,
      "Ġelected": 7316,
      "ĠAssist": 7317,
      "Ġnetworks": 7318,
      "ĠBroad": 7319,
      "ĠContin": 7320,
      "Ġwindows": 7321,
      "Although": 7322,
      "Ġprinted": 7323,
      "ĠPalin": 7324,
      "Ġbottle": 7325,
      "Ġdomestic": 7326,
      "Ġrecognize": 7327,
      "Ġdogs": 7328,
      "Ġticket": 7329,
      "Ġlicense": 7330,
      "Ġassessment": 7331,
      "Ġincorpor": 7332,
      "ĠStephen": 7333,
      "ĠHenry": 7334,
      "Ġlanguages": 7335,
      ".;": 7336,
      "Note": 7337,
      "OK": 7338,
      "ns": 7339,
      "inch": 7340,
      "Ġsin": 7341,
      "Ġsoph": 7342,
      "Ġcock": 7343,
      "Ġpra": 7344,
      "Ġtow": 7345,
      "Ġmad": 7346,
      "arters": 7347,
      "Ġnative": 7348,
      "Ġreaching": 7349,
      "roke": 7350,
      "ĠSH": 7351,
      "Ġweird": 7352,
      "ĠBre": 7353,
      "ĠBan": 7354,
      "ĠHoly": 7355,
      "ĠDave": 7356,
      "Ġprohib": 7357,
      "ĠFA": 7358,
      "ĠFred": 7359,
      "ista": 7360,
      "unes": 7361,
      "ĠLand": 7362,
      "ĠLog": 7363,
      "ĠGreg": 7364,
      "Ġvice": 7365,
      "Ġking": 7366,
      "Ġplastic": 7367,
      "Ġmeal": 7368,
      "Ġenable": 7369,
      "Ġimper": 7370,
      "Ġunp": 7371,
      "obby": 7372,
      "Ġblank": 7373,
      "angers": 7374,
      "Ġcoal": 7375,
      "Ġeveryday": 7376,
      "Ġattitude": 7377,
      "ĠDeb": 7378,
      "ĠArts": 7379,
      "Ġcourts": 7380,
      "Ġ09": 7381,
      "Ġconflict": 7382,
      "Ġdram": 7383,
      "ĠConnect": 7384,
      "Ġvend": 7385,
      "Ġwriters": 7386,
      "Ġelectronic": 7387,
      "ART": 7388,
      "Ġcausing": 7389,
      "offs": 7390,
      "ĠEmily": 7391,
      "ĠAgency": 7392,
      "ĠPerhaps": 7393,
      "Ġattended": 7394,
      "Ġmedicine": 7395,
      "ĠUsing": 7396,
      "Ġcarrying": 7397,
      "ĠBuild": 7398,
      "ĠiPod": 7399,
      "ĠInstead": 7400,
      "Ġsurrounding": 7401,
      "Ġmerely": 7402,
      "Ġcontrovers": 7403,
      "Ġmurder": 7404,
      "Ġfraud": 7405,
      "Ġstupid": 7406,
      "lvania": 7407,
      "\")": 7408,
      "EA": 7409,
      "Sec": 7410,
      "den": 7411,
      "nov": 7412,
      "tes": 7413,
      "uity": 7414,
      "Ġtiny": 7415,
      "Ġsought": 7416,
      "Ġfasc": 7417,
      "Ġpounds": 7418,
      "Ġdust": 7419,
      "ental": 7420,
      "ĠSometimes": 7421,
      "ĠCH": 7422,
      "ĠBox": 7423,
      "ĠPract": 7424,
      "ĠRB": 7425,
      "Ġraw": 7426,
      "abet": 7427,
      "ĠLO": 7428,
      "ĠLis": 7429,
      "ĠLady": 7430,
      "elf": 7431,
      "teen": 7432,
      "Ġwheel": 7433,
      "ogether": 7434,
      "aug": 7435,
      "ĠStan": 7436,
      "Ġknee": 7437,
      "Ġ-----": 7438,
      "ecess": 7439,
      "Ġ49": 7440,
      "Ġdont": 7441,
      "Ġguitar": 7442,
      "Ġinvent": 7443,
      "they": 7444,
      "Ġheaded": 7445,
      "Ġopposition": 7446,
      "Ġlegs": 7447,
      "Star": 7448,
      "Ġtempor": 7449,
      "sylvania": 7450,
      "Reg": 7451,
      "Ġ1980": 7452,
      "Ġdefinition": 7453,
      "Ġsignificantly": 7454,
      "Ġvictims": 7455,
      "Ġgraduate": 7456,
      "ĠSpringboks": 7457,
      "Ġfeedback": 7458,
      "Ġcontributions": 7459,
      "Ġarchitecture": 7460,
      "Ġannouncement": 7461,
      "Ġrecipes": 7462,
      "ĠChildren": 7463,
      "Ġenthusi": 7464,
      "65": 7465,
      "CA": 7466,
      "Sm": 7467,
      "Two": 7468,
      "pass": 7469,
      "rical": 7470,
      "vy": 7471,
      "Ġrib": 7472,
      "heast": 7473,
      "including": 7474,
      "Ġpapers": 7475,
      "alog": 7476,
      "Ġlad": 7477,
      "Ġrein": 7478,
      "ĠMain": 7479,
      "irts": 7480,
      "chant": 7481,
      "Ġancient": 7482,
      "ifest": 7483,
      "ĠDod": 7484,
      "Ġrom": 7485,
      "Ġalarm": 7486,
      "Ġchose": 7487,
      "ĠThree": 7488,
      "ĠStill": 7489,
      "Ġhadn": 7490,
      "Ġunus": 7491,
      "ordinary": 7492,
      "anges": 7493,
      "Ġacting": 7494,
      "comes": 7495,
      "Ġpointed": 7496,
      "Ġ08": 7497,
      "Ġtested": 7498,
      "Ġphotograp": 7499,
      "Ġoperate": 7500,
      "who": 7501,
      "Ġwondering": 7502,
      "unicipal": 7503,
      "Ġsuggests": 7504,
      "Ġargue": 7505,
      "iami": 7506,
      "ĠSenator": 7507,
      "Ġessentially": 7508,
      "Ġembarrass": 7509,
      "Ġroutine": 7510,
      "Ġhistoric": 7511,
      "Ġhistorical": 7512,
      "Ġdetailed": 7513,
      "During": 7514,
      "GE": 7515,
      "Int": 7516,
      "MP": 7517,
      "March": 7518,
      "gent": 7519,
      "ht": 7520,
      "makers": 7521,
      "oir": 7522,
      "nda": 7523,
      "Ġcro": 7524,
      "ĠIP": 7525,
      "Ġreact": 7526,
      "Ġgonna": 7527,
      "ĠCy": 7528,
      "Ġassemb": 7529,
      "uling": 7530,
      "ema": 7531,
      "Ġshr": 7532,
      "Ġshirt": 7533,
      "ĠStat": 7534,
      "Ġnewly": 7535,
      "Ġrecru": 7536,
      "ruption": 7537,
      "Ġregional": 7538,
      "athan": 7539,
      "Ġending": 7540,
      "ounce": 7541,
      "mann": 7542,
      "Ġmarked": 7543,
      "Ġdesigner": 7544,
      "Ġexplan": 7545,
      "ĠPlus": 7546,
      "Ġ1994": 7547,
      "Ġchecking": 7548,
      "Ġdistinct": 7549,
      "Ġbench": 7550,
      "ĠAmazon": 7551,
      "ĠCoast": 7552,
      "Once": 7553,
      "Ġstayed": 7554,
      "Ġcompetitive": 7555,
      "regon": 7556,
      "Ġdestination": 7557,
      "Ġimprovement": 7558,
      "Ġstruggle": 7559,
      "Ġstrategies": 7560,
      "Ġatmosphere": 7561,
      "BO": 7562,
      "uine": 7563,
      "Ġtall": 7564,
      "onia": 7565,
      "Ġbare": 7566,
      "Ġfurn": 7567,
      "Ġped": 7568,
      "Ġhall": 7569,
      "omic": 7570,
      "sters": 7571,
      "Ġyellow": 7572,
      "ĠSS": 7573,
      "idays": 7574,
      "etary": 7575,
      "ĠCru": 7576,
      "igible": 7577,
      "Ġstations": 7578,
      "ĠMid": 7579,
      "ĠProm": 7580,
      "ĠHim": 7581,
      "ĠHarr": 7582,
      "ĠDate": 7583,
      "ĠDaniel": 7584,
      "Ġproven": 7585,
      "ĠFall": 7586,
      "ĠLow": 7587,
      "Ġsuit": 7588,
      "Ġadmitted": 7589,
      "Ġcomputers": 7590,
      "Ġcompensation": 7591,
      "Ġages": 7592,
      "Ġdishes": 7593,
      "Ġdesper": 7594,
      "Ġguilty": 7595,
      "Ġcourses": 7596,
      "Ġinterface": 7597,
      "Ġinteractive": 7598,
      "Ġconfig": 7599,
      "ĠConst": 7600,
      "ĠZeal": 7601,
      "Ġyounger": 7602,
      "ĠCarl": 7603,
      "Ġelsewhere": 7604,
      "Ġparticipation": 7605,
      "Ġrepresented": 7606,
      "OME": 7607,
      "Ġfigures": 7608,
      "Ġattempts": 7609,
      "Ġboxes": 7610,
      "ĠCorpor": 7611,
      "Ġdivision": 7612,
      "Ġchallenging": 7613,
      "Ġmanufacturing": 7614,
      "ĠScientology": 7615,
      "Ġrestrictions": 7616,
      "ĠKorea": 7617,
      "Ġconclusion": 7618,
      "Ġbasketball": 7619,
      "ĠSupreme": 7620,
      "John": 7621,
      "boy": 7622,
      "gas": 7623,
      "pa": 7624,
      "vas": 7625,
      "wich": 7626,
      "hent": 7627,
      "oning": 7628,
      "Ġsessions": 7629,
      "Ġborrow": 7630,
      "Ġlux": 7631,
      "Ġreduction": 7632,
      "Ġbell": 7633,
      "ĠTurn": 7634,
      "ĠAT": 7635,
      "ĠCre": 7636,
      "adelph": 7637,
      "ĠBow": 7638,
      "ĠBall": 7639,
      "ĠDC": 7640,
      "ulating": 7641,
      "ĠFREE": 7642,
      "isted": 7643,
      "ĠLabor": 7644,
      "ĠGar": 7645,
      "ĠOp": 7646,
      "ĠThus": 7647,
      "Ġanymore": 7648,
      "Ġspir": 7649,
      "Ġprepar": 7650,
      "Ġshel": 7651,
      "Ġembr": 7652,
      "Ġinsight": 7653,
      "inson": 7654,
      "ĠAsh": 7655,
      "Ġexposed": 7656,
      "Ġdrivers": 7657,
      "Ġbehalf": 7658,
      "Ġlighting": 7659,
      "Ġsuccessfully": 7660,
      "Ġinvestigation": 7661,
      "Ġfeaturing": 7662,
      "Ġhosted": 7663,
      "haust": 7664,
      "Ġreplaced": 7665,
      "Ġradiation": 7666,
      "Ġamounts": 7667,
      "Ġmotor": 7668,
      "Ġinspiration": 7669,
      "Ġmachines": 7670,
      "ĠRomney": 7671,
      "Ġuncertain": 7672,
      "ĠJersey": 7673,
      "Ġvirus": 7674,
      "Ġsuicide": 7675,
      "ĠFoxtel": 7676,
      "atellite": 7677,
      "EP": 7678,
      "HL": 7679,
      "Ob": 7680,
      "Welcome": 7681,
      "pes": 7682,
      "whel": 7683,
      "onto": 7684,
      "Ġwake": 7685,
      "Ġokay": 7686,
      "Ġdistr": 7687,
      "Ġdining": 7688,
      "Ġhidden": 7689,
      "aser": 7690,
      "Ġbear": 7691,
      "ĠTSO": 7692,
      "ĠMax": 7693,
      "ĠBell": 7694,
      "ĠPow": 7695,
      "ĠHart": 7696,
      "ĠRus": 7697,
      "ĠRog": 7698,
      "Ġrice": 7699,
      "emb": 7700,
      "ushed": 7701,
      "Ġshift": 7702,
      "Ġsharp": 7703,
      "Ġalleg": 7704,
      "outing": 7705,
      "Ġupset": 7706,
      "uburn": 7707,
      "ĠKent": 7708,
      "Ġcontribute": 7709,
      "Ġquant": 7710,
      "ordan": 7711,
      "merce": 7712,
      "ruce": 7713,
      "ĠWeather": 7714,
      "Ġgrant": 7715,
      "Ġblame": 7716,
      "Ġsheet": 7717,
      "Ġaccord": 7718,
      "Ġbridge": 7719,
      "Ġsupplies": 7720,
      "ifications": 7721,
      "Ġedited": 7722,
      "everal": 7723,
      "annon": 7724,
      "Ġcharity": 7725,
      "ĠTherefore": 7726,
      "Ġheading": 7727,
      "Ġresulting": 7728,
      "Ġprofit": 7729,
      "ĠMarc": 7730,
      "Ġversions": 7731,
      "ĠCountry": 7732,
      "Ġreplacement": 7733,
      "Ġinjuries": 7734,
      "Ġregularly": 7735,
      "ĠArea": 7736,
      "Ġrestaurants": 7737,
      "Ġqualified": 7738,
      "Ġera": 7739,
      "Ġcomponent": 7740,
      "stein": 7741,
      "allel": 7742,
      "ĠZealand": 7743,
      "adelphia": 7744,
      "300": 7745,
      "69": 7746,
      "Dr": 7747,
      "HER": 7748,
      "RI": 7749,
      "live": 7750,
      "mate": 7751,
      "ni": 7752,
      "rich": 7753,
      "Ġtie": 7754,
      "Ġawards": 7755,
      "iner": 7756,
      "anes": 7757,
      "Ġdates": 7758,
      "andy": 7759,
      "ĠGro": 7760,
      "ĠEnt": 7761,
      "ĠOnt": 7762,
      "osite": 7763,
      "Ġdose": 7764,
      "Ġdozen": 7765,
      "claim": 7766,
      "Ġapplying": 7767,
      "Ġspo": 7768,
      "Ġgrass": 7769,
      "Ġnoise": 7770,
      "Ġpoet": 7771,
      "Ġflash": 7772,
      "Ġevolution": 7773,
      "athy": 7774,
      "aza": 7775,
      "Ġsimpl": 7776,
      "ĠAnth": 7777,
      "Ġmode": 7778,
      "Ġheads": 7779,
      "Ġ06": 7780,
      "Ġextent": 7781,
      "Ġharder": 7782,
      "âĢ¦.": 7783,
      "erring": 7784,
      "letin": 7785,
      "Ġpercentage": 7786,
      "Ġcomplaints": 7787,
      "Ġforever": 7788,
      "Ġaddresses": 7789,
      "Ġprivacy": 7790,
      "Ġencoun": 7791,
      "ĠBarb": 7792,
      "Ġsuffer": 7793,
      "Ġsuffered": 7794,
      "Ġhydro": 7795,
      "Ġinjured": 7796,
      "orgeous": 7797,
      "Ġawarded": 7798,
      "Ġindicate": 7799,
      "Ġcategories": 7800,
      "Ġlicens": 7801,
      "ĠiPad": 7802,
      "Ġlucky": 7803,
      "Ġreferred": 7804,
      "ĠSilver": 7805,
      "Ġexclusive": 7806,
      "Ġaccomplish": 7807,
      "ĠNorman": 7808,
      "ĠPacific": 7809,
      "'.": 7810,
      "Because": 7811,
      "Free": 7812,
      "bury": 7813,
      "case": 7814,
      "mble": 7815,
      "range": 7816,
      "Ġtied": 7817,
      "erk": 7818,
      "Ġwise": 7819,
      "oral": 7820,
      "Ġpill": 7821,
      "Ġpace": 7822,
      "alty": 7823,
      "aron": 7824,
      "level": 7825,
      "ĠTony": 7826,
      "ĠSov": 7827,
      "ctr": 7828,
      "ĠMah": 7829,
      "olt": 7830,
      "ĠPerson": 7831,
      "Ġanger": 7832,
      "ĠHas": 7833,
      "ĠHTML": 7834,
      "Ġsees": 7835,
      "ppy": 7836,
      "ĠOx": 7837,
      "Ġlets": 7838,
      "Ġtrained": 7839,
      "Ġbutt": 7840,
      "izza": 7841,
      "ĠVideo": 7842,
      "Ġinteract": 7843,
      "Ġcruc": 7844,
      "Ġsolo": 7845,
      "Ġorganic": 7846,
      "ĠPlayer": 7847,
      "Ġtrading": 7848,
      "Ġclosely": 7849,
      "Ġfalls": 7850,
      "Ġordinance": 7851,
      "ĠGlobal": 7852,
      "Ġcollected": 7853,
      "Ġacquired": 7854,
      "ĠJesse": 7855,
      "Ġparking": 7856,
      "ĠMagazine": 7857,
      "ĠDemocrats": 7858,
      "Friday": 7859,
      "Ġfluid": 7860,
      "Ġenhance": 7861,
      "ĠDivision": 7862,
      "Ġmolec": 7863,
      "Ear": 7864,
      "Feb": 7865,
      "Good": 7866,
      "PD": 7867,
      "].": 7868,
      "iable": 7869,
      "Ġ~": 7870,
      "Ġsoc": 7871,
      "ouston": 7872,
      "ĠSher": 7873,
      "ĠAgr": 7874,
      "ĠAvenue": 7875,
      "ĠCra": 7876,
      "ĠColl": 7877,
      "âĢĻ.": 7878,
      "ĠWatch": 7879,
      "Ġru": 7880,
      "ĠFar": 7881,
      "ĠGas": 7882,
      "ardens": 7883,
      "Ġjack": 7884,
      "apy": 7885,
      "Ġkilling": 7886,
      "odox": 7887,
      "Ġclubs": 7888,
      "ĠStart": 7889,
      "ĠKar": 7890,
      "Ġ34": 7891,
      "Ġstudio": 7892,
      "Ġassault": 7893,
      "Ġmemories": 7894,
      "Ġreturning": 7895,
      "Ġsubsequ": 7896,
      "Ġslides": 7897,
      "ucky": 7898,
      "Ġ04": 7899,
      "Ġ05": 7900,
      "Ġdirected": 7901,
      "Ġoppon": 7902,
      "Ġ150": 7903,
      "ĠConf": 7904,
      "Ġ1996": 7905,
      "Ġhumor": 7906,
      "Ġperforming": 7907,
      "Ġaffili": 7908,
      "ĠResources": 7909,
      "Ġlights": 7910,
      "Ġemployment": 7911,
      "Ġpublishing": 7912,
      "Ġmessages": 7913,
      "Ġauthorities": 7914,
      "Ġsuggestions": 7915,
      "Ġpainting": 7916,
      "ĠMarketing": 7917,
      "Ġloans": 7918,
      "ĠEliz": 7919,
      "OWN": 7920,
      "Ġpatterns": 7921,
      "hetic": 7922,
      "Ġvolunteers": 7923,
      "Ġbacter": 7924,
      "ĠPennsylvania": 7925,
      "Ġphotographs": 7926,
      "heimer": 7927,
      ".âĢĻ": 7928,
      "2000": 7929,
      "Book": 7930,
      "NT": 7931,
      "Round": 7932,
      "rate": 7933,
      "writ": 7934,
      "Ġtired": 7935,
      "Ġtasks": 7936,
      "Ġbra": 7937,
      "Ġinput": 7938,
      "Ġgentle": 7939,
      "otion": 7940,
      "ĠCee": 7941,
      "ĠMIT": 7942,
      "ĠMiami": 7943,
      "olas": 7944,
      "ĠBrian": 7945,
      "Ġanx": 7946,
      "Ġrig": 7947,
      "usal": 7948,
      "ĠOak": 7949,
      "Ġalcohol": 7950,
      "oca": 7951,
      "Ġworried": 7952,
      "ĠYahoo": 7953,
      "Ġunex": 7954,
      "Ġpepper": 7955,
      "Ġspark": 7956,
      "Ġacts": 7957,
      "ĠWhich": 7958,
      "encer": 7959,
      "ĠSoft": 7960,
      "Ġframework": 7961,
      "Ġhardware": 7962,
      "Ġrefused": 7963,
      "Ġmanaging": 7964,
      "ĠSpace": 7965,
      "ĠWorks": 7966,
      "Ġdiscussions": 7967,
      "Ġdebut": 7968,
      "Ġarguments": 7969,
      "Ġproducing": 7970,
      "ĠPolit": 7971,
      "Ġdecline": 7972,
      "Ġarrive": 7973,
      "Ġmistake": 7974,
      "Ġobtain": 7975,
      "ĠDemocratic": 7976,
      "Ġmechanism": 7977,
      "Ġproposal": 7978,
      "Ġelectricity": 7979,
      "Ġstyles": 7980,
      "ĠCelebr": 7981,
      "66": 7982,
      "BM": 7983,
      "Fl": 7984,
      "RL": 7985,
      "RM": 7986,
      "cr": 7987,
      "long": 7988,
      "nic": 7989,
      "Ġicon": 7990,
      "Ĥ¬": 7991,
      "Ġtiss": 7992,
      "inum": 7993,
      "Ġwins": 7994,
      "oric": 7995,
      "Ġmales": 7996,
      "Ġdownt": 7997,
      "ĠTerm": 7998,
      "Ġyield": 7999,
      "ĠCook": 8000,
      "ĠCustom": 8001,
      "ĠMother": 8002,
      "ĠMission": 8003,
      "iler": 8004,
      "ĠBang": 8005,
      "ĠBern": 8006,
      "ĠPers": 8007,
      "ĠPier": 8008,
      "Ġwash": 8009,
      "Ġproof": 8010,
      "Ġrub": 8011,
      "ĠFriend": 8012,
      "resents": 8013,
      "Ġvul": 8014,
      "ĠJobs": 8015,
      "Ġchances": 8016,
      "ghan": 8017,
      "Ġupload": 8018,
      "pton": 8019,
      "ĠVer": 8020,
      "Ġsche": 8021,
      "ferences": 8022,
      "onsin": 8023,
      "Ġwanting": 8024,
      "ĠAndroid": 8025,
      "Ġ52": 8026,
      "ĠWhit": 8027,
      "Ġstudied": 8028,
      "iversary": 8029,
      "Ġchildhood": 8030,
      "Ġobst": 8031,
      "Ġweekly": 8032,
      "Ġtechnique": 8033,
      "Ġorganized": 8034,
      "isconsin": 8035,
      "ĠSpirit": 8036,
      "Ġdipl": 8037,
      "Ġnearby": 8038,
      "Ġofficially": 8039,
      "Ġfacing": 8040,
      "Ġalongside": 8041,
      "Ġinvolving": 8042,
      "ĠMcG": 8043,
      "2008": 8044,
      "Ġboards": 8045,
      "Ġprotected": 8046,
      "Ġimmediate": 8047,
      "Ġangry": 8048,
      "Ġdivide": 8049,
      "Ġrepeat": 8050,
      "ĠGolden": 8051,
      "Ġestimated": 8052,
      "Ġerrors": 8053,
      "ĠHoover": 8054,
      "54": 8055,
      ">>": 8056,
      "April": 8057,
      "HA": 8058,
      "Have": 8059,
      "ILL": 8060,
      "TC": 8061,
      "TL": 8062,
      "bal": 8063,
      "jo": 8064,
      "och": 8065,
      "td": 8066,
      "Ġtact": 8067,
      "Ġbon": 8068,
      "Ġinning": 8069,
      "omatic": 8070,
      "Ġloose": 8071,
      "Ġloud": 8072,
      "enth": 8073,
      "ĠSet": 8074,
      "aded": 8075,
      "ĠMult": 8076,
      "celer": 8077,
      "ĠBa": 8078,
      "ĠBrew": 8079,
      "ĠPy": 8080,
      "ĠPay": 8081,
      "ĠPack": 8082,
      "emed": 8083,
      "employment": 8084,
      "thouse": 8085,
      "thodox": 8086,
      "umer": 8087,
      "ĠGallery": 8088,
      "uster": 8089,
      "ĠJam": 8090,
      "ĠUg": 8091,
      "ĠKnight": 8092,
      "Ġquote": 8093,
      "Ġunknown": 8094,
      "Ġoverse": 8095,
      "Ġoverwhel": 8096,
      "ĠAlaska": 8097,
      "Ġdefine": 8098,
      "ĠAsia": 8099,
      "Ġreporter": 8100,
      "Ġcrash": 8101,
      "Ġtrials": 8102,
      "Ġtestim": 8103,
      "ĠTraining": 8104,
      "Ġmusical": 8105,
      "Ġequally": 8106,
      "ĠCentre": 8107,
      "ĠApplic": 8108,
      "ĠBrook": 8109,
      "Ġcombine": 8110,
      "Ġkeyboard": 8111,
      "Ġagenda": 8112,
      "Ġauditing": 8113,
      "Ġrepresentatives": 8114,
      "ĠStudents": 8115,
      "ĠHarry": 8116,
      "Ġvacation": 8117,
      "ĠIII": 8118,
      "ĠBuy": 8119,
      "ĠWordPress": 8120,
      "Ġterrit": 8121,
      "reprene": 8122,
      "Ġscenes": 8123,
      "Ġpushed": 8124,
      "Ġaccommodations": 8125,
      "Ġwalks": 8126,
      "Ġscholars": 8127,
      "Ġgrocer": 8128,
      "hentic": 8129,
      "LU": 8130,
      "ban": 8131,
      "dated": 8132,
      "fish": 8133,
      "hot": 8134,
      "http": 8135,
      "iot": 8136,
      "oz": 8137,
      "rid": 8138,
      "town": 8139,
      "Ħ¢": 8140,
      "Ġtournament": 8141,
      "Ġaver": 8142,
      "inte": 8143,
      "Ġwid": 8144,
      "isan": 8145,
      "Ġink": 8146,
      "Ġnarr": 8147,
      "stery": 8148,
      "Ġgall": 8149,
      "ĠTem": 8150,
      "ĠTour": 8151,
      "ĠSEC": 8152,
      "ctic": 8153,
      "ilton": 8154,
      "ĠBaker": 8155,
      "ĠBowl": 8156,
      "ĠPad": 8157,
      "Ġsections": 8158,
      "ĠRachel": 8159,
      "Ġrising": 8160,
      "Ġdeals": 8161,
      "ĠGi": 8162,
      "elson": 8163,
      "ĠEs": 8164,
      "ĠOtt": 8165,
      "ĠJosh": 8166,
      "redit": 8167,
      "Ġplain": 8168,
      "Ġoutstanding": 8169,
      "Ġads": 8170,
      "Ġclosing": 8171,
      "Ġdispl": 8172,
      "Ġ33": 8173,
      "ĠUnfortunately": 8174,
      "Ġprovisions": 8175,
      "Ġentering": 8176,
      "gypt": 8177,
      "Ġdiam": 8178,
      "Ġaccessible": 8179,
      "Ġimproving": 8180,
      "Ġcreates": 8181,
      "Ġhosting": 8182,
      "Ġperiods": 8183,
      "Ġvotes": 8184,
      "Ġsearching": 8185,
      "inois": 8186,
      "Ġgenuine": 8187,
      "Ġearthqu": 8188,
      "market": 8189,
      "Ġliterature": 8190,
      "Ġemotions": 8191,
      "ĠHotel": 8192,
      "ĠEllie": 8193,
      "Ġridic": 8194,
      "Ġbathroom": 8195,
      "Ġbodies": 8196,
      "ĠHawai": 8197,
      "Ġenforcement": 8198,
      "Ġjewelry": 8199,
      "ĠTurkish": 8200,
      "ĠYankees": 8201,
      "Ġpermanent": 8202,
      "ĠOntario": 8203,
      "Are": 8204,
      "Back": 8205,
      "Dis": 8206,
      "EG": 8207,
      "Monday": 8208,
      "data": 8209,
      "gage": 8210,
      "lah": 8211,
      "rus": 8212,
      "vation": 8213,
      "zil": 8214,
      "âĦ¢": 8215,
      "Ġtank": 8216,
      "onz": 8217,
      "Ġwarn": 8218,
      "Ġbuck": 8219,
      "Ġfired": 8220,
      "Ġmile": 8221,
      "Ġham": 8222,
      "asm": 8223,
      "oting": 8224,
      "ĠSC": 8225,
      "Ġstone": 8226,
      "Ġstreets": 8227,
      "ĠHP": 8228,
      "Ġseats": 8229,
      "ĠRod": 8230,
      "Ġconce": 8231,
      "rome": 8232,
      "about": 8233,
      "Ġexit": 8234,
      "ĠET": 8235,
      "ĠEff": 8236,
      "ĠEgypt": 8237,
      "Ġlip": 8238,
      "Ġaggress": 8239,
      "Ġrecovery": 8240,
      "anged": 8241,
      "week": 8242,
      "uality": 8243,
      "Ġ55": 8244,
      "Ġgreatly": 8245,
      "Ġserves": 8246,
      "Ġcarbon": 8247,
      "Ġhandling": 8248,
      "Ġtransmission": 8249,
      "Ġrequests": 8250,
      "Ġfounded": 8251,
      "Ġputs": 8252,
      "ĠAdam": 8253,
      "ĠSeason": 8254,
      "rett": 8255,
      "Ġdesigns": 8256,
      "Ġlesson": 8257,
      "Ġminds": 8258,
      "ĠChristians": 8259,
      "Ġmembership": 8260,
      "Ġlimits": 8261,
      "Ġrequirement": 8262,
      "ĠAssociated": 8263,
      "ĠSanur": 8264,
      "ĠGovern": 8265,
      "Ġburied": 8266,
      "Ġvictim": 8267,
      "Ġlibraries": 8268,
      "Ġsoldiers": 8269,
      "ĠDisney": 8270,
      "Ġlifest": 8271,
      "Ġimplementation": 8272,
      "Ġthrowing": 8273,
      "Ġhanging": 8274,
      "Ġterrible": 8275,
      "ĠKorean": 8276,
      "ĠProfessional": 8277,
      "Ġsustainable": 8278,
      "front": 8279,
      "ĠEnvironmental": 8280,
      "written": 8281,
      "ĠAdministration": 8282,
      "Ġentitled": 8283,
      "Ġfundamental": 8284,
      "Ġbrilliant": 8285,
      "Ġfingers": 8286,
      "',": 8287,
      "cific": 8288,
      "iences": 8289,
      "mend": 8290,
      "oen": 8291,
      "ran": 8292,
      "rated": 8293,
      "Ġast": 8294,
      "rer": 8295,
      "Ġsoci": 8296,
      "Ġwra": 8297,
      "athered": 8298,
      "itis": 8299,
      "Ġmood": 8300,
      "alo": 8301,
      "Ġthorough": 8302,
      "Ġlaid": 8303,
      "ĠAF": 8304,
      "ĠCreat": 8305,
      "ĠCapt": 8306,
      "Ġstocks": 8307,
      "ĠHop": 8308,
      "agg": 8309,
      "agan": 8310,
      "ĠRugby": 8311,
      "Ġrural": 8312,
      "Ġrugby": 8313,
      "ĠNFL": 8314,
      "ĠGreek": 8315,
      "ĠESP": 8316,
      "osa": 8317,
      "ĠJac": 8318,
      "Ġabortion": 8319,
      "aping": 8320,
      "asts": 8321,
      "ĠThough": 8322,
      "Ġarmed": 8323,
      "ĠStyle": 8324,
      "ĠKansas": 8325,
      "Ġunw": 8326,
      "Ġuniform": 8327,
      "ĠVan": 8328,
      "ĠHell": 8329,
      "rup": 8330,
      "Ġ42": 8331,
      "Ġ46": 8332,
      "Ġadds": 8333,
      "Ġguidelines": 8334,
      "Ġentries": 8335,
      "Ġdecent": 8336,
      "Ġpersonality": 8337,
      "Ġhardly": 8338,
      "Ġexplains": 8339,
      "ĠConvention": 8340,
      "Ġsituations": 8341,
      "Ġorigin": 8342,
      "Ġinvolves": 8343,
      "ĠOfficer": 8344,
      "Ġstronger": 8345,
      "Ġsexes": 8346,
      "Ġcompete": 8347,
      "ĠSmall": 8348,
      "Ġjudgment": 8349,
      "Ġangels": 8350,
      "ĠMaryland": 8351,
      "Ġthousand": 8352,
      "Ġprotest": 8353,
      "Before": 8354,
      "ĠADHD": 8355,
      "Ġinnovative": 8356,
      "Ġmonitoring": 8357,
      "Ġsplit": 8358,
      "ĠWhether": 8359,
      "Ġlandsc": 8360,
      "ĠPalestin": 8361,
      "Ġunusual": 8362,
      "Ġexplanation": 8363,
      "600": 8364,
      "AB": 8365,
      "aired": 8366,
      "don": 8367,
      "iac": 8368,
      "uh": 8369,
      "Â°": 8370,
      "ÃŃ": 8371,
      "Ġtrib": 8372,
      "iture": 8373,
      "Ġbind": 8374,
      "Ġbills": 8375,
      "Ġmut": 8376,
      "omy": 8377,
      "Ġgorgeous": 8378,
      "ĠSection": 8379,
      "Ġongoing": 8380,
      "cend": 8381,
      "ĠBul": 8382,
      "ĠHun": 8383,
      "Ġpros": 8384,
      "ĠRoss": 8385,
      "uset": 8386,
      "ewis": 8387,
      "ĠEve": 8388,
      "ĠOT": 8389,
      "ĠJordan": 8390,
      "ourse": 8391,
      "Ġplot": 8392,
      "Ġplug": 8393,
      "Ġenorm": 8394,
      "Ġsomebody": 8395,
      "Ġunn": 8396,
      "neum": 8397,
      "Ġpersonnel": 8398,
      "Ġstring": 8399,
      "Ġstruck": 8400,
      "Ġvisited": 8401,
      "Ġadventure": 8402,
      "retty": 8403,
      "Ġwinners": 8404,
      "Ġintense": 8405,
      "plete": 8406,
      "ospel": 8407,
      "Ġforest": 8408,
      "Ġraising": 8409,
      "what": 8410,
      "Ġparticipating": 8411,
      "ĠBarack": 8412,
      "Ġattending": 8413,
      "****": 8414,
      "Ġcapture": 8415,
      "Ġcaptured": 8416,
      "Ġtouchdown": 8417,
      "Ġsilver": 8418,
      "Ġdrove": 8419,
      "Ġsleeping": 8420,
      "ĠMatthew": 8421,
      "Ġliberal": 8422,
      "ippi": 8423,
      "ĠMountain": 8424,
      "ĠLearning": 8425,
      "Ġtransportation": 8426,
      "Ġresistance": 8427,
      "People": 8428,
      "Ġpitcher": 8429,
      "ĠSafety": 8430,
      "Ġintellectual": 8431,
      "85": 8432,
      "Oct": 8433,
      "Orig": 8434,
      "after": 8435,
      "epend": 8436,
      "high": 8437,
      "rant": 8438,
      "yers": 8439,
      "Ġtip": 8440,
      "Ġtheater": 8441,
      "only": 8442,
      "erg": 8443,
      "eness": 8444,
      "esh": 8445,
      "Ġmac": 8446,
      "Ġmaps": 8447,
      "Ġinher": 8448,
      "uther": 8449,
      "ĠSix": 8450,
      "ĠAge": 8451,
      "ĠMom": 8452,
      "Ġwithd": 8453,
      "Ġwholes": 8454,
      "Ġhabit": 8455,
      "ĠFact": 8456,
      "ĠFord": 8457,
      "ĠFull": 8458,
      "uns": 8459,
      "ĠGree": 8460,
      "ĠOregon": 8461,
      "ockey": 8462,
      "Ġchart": 8463,
      "Ġanybody": 8464,
      "Ġresort": 8465,
      "ĠChannel": 8466,
      "ĠItaly": 8467,
      "igned": 8468,
      "Ġrecover": 8469,
      "Ġroles": 8470,
      "amps": 8471,
      "iana": 8472,
      "rently": 8473,
      "...]": 8474,
      "rowse": 8475,
      "ĠUnit": 8476,
      "pring": 8477,
      "Ġ64": 8478,
      "Ġ65": 8479,
      "Ġposter": 8480,
      "Ġretired": 8481,
      "Ġfewer": 8482,
      "phy": 8483,
      "Ġpasses": 8484,
      "Ġrepresents": 8485,
      "Ġdrag": 8486,
      "ployed": 8487,
      "Ġbreaking": 8488,
      "Ġlegit": 8489,
      "Ġdiverse": 8490,
      "Ġexpectations": 8491,
      "Ġengage": 8492,
      "ĠAfghan": 8493,
      "ĠÂ£": 8494,
      "ĠSciences": 8495,
      "Ġboat": 8496,
      "ĠDespite": 8497,
      "Ġassistant": 8498,
      "Ġdeclared": 8499,
      "ĠFinancial": 8500,
      "Ġencouraged": 8501,
      "holders": 8502,
      "Ġconcert": 8503,
      "ĠThanksgiving": 8504,
      "IGH": 8505,
      "Ġcomparison": 8506,
      ",âĢĻ": 8507,
      "His": 8508,
      "IES": 8509,
      "Look": 8510,
      "Tuesday": 8511,
      "bok": 8512,
      "mal": 8513,
      "uction": 8514,
      "zing": 8515,
      "inced": 8516,
      "Ġsab": 8517,
      "Ġsouthern": 8518,
      "atible": 8519,
      "organ": 8520,
      "Ġboss": 8521,
      "Ġbomb": 8522,
      "Ġphen": 8523,
      "Ġinqu": 8524,
      "Ġhired": 8525,
      "Ġthrew": 8526,
      "Ġrear": 8527,
      "ĠSD": 8528,
      "ĠAst": 8529,
      "ami": 8530,
      "Ġheight": 8531,
      "ĠMaine": 8532,
      "ĠBB": 8533,
      "ĠWH": 8534,
      "ĠFal": 8535,
      "abeth": 8536,
      "ĠNO": 8537,
      "Ġexec": 8538,
      "oute": 8539,
      "Ġworship": 8540,
      "Ġcompare": 8541,
      "Ġcontained": 8542,
      "achuset": 8543,
      "Ġblocks": 8544,
      "ools": 8545,
      "Ġpresents": 8546,
      "Ġinstruction": 8547,
      "Ġminim": 8548,
      "Ġfrustr": 8549,
      "Ġcareful": 8550,
      "Ġlessons": 8551,
      "Ġopposite": 8552,
      "Ġdrives": 8553,
      "Ġblogging": 8554,
      "Ġpromised": 8555,
      "Ġsinging": 8556,
      "books": 8557,
      "Ġtradem": 8558,
      "Ġmainly": 8559,
      "unications": 8560,
      "Christ": 8561,
      "Ġauto": 8562,
      "ĠContact": 8563,
      "Ġwarning": 8564,
      "Ġcelebration": 8565,
      "Ġintegrated": 8566,
      "Ġrevolution": 8567,
      "Ġdenied": 8568,
      "Ġsurvive": 8569,
      "ĠClassic": 8570,
      "Ġclothing": 8571,
      "Ġapolog": 8572,
      "Ġgovernments": 8573,
      "ĠLearn": 8574,
      "ĠMedicine": 8575,
      "Ġcolleagues": 8576,
      "Ġconvenient": 8577,
      "Ġspokes": 8578,
      "Ġguarantee": 8579,
      "Ġdynamic": 8580,
      "Ġphilosoph": 8581,
      "ĠSoviet": 8582,
      "ĠAgricult": 8583,
      "lahoma": 8584,
      "ĠESPN": 8585,
      "achusetts": 8586,
      "Even": 8587,
      "KS": 8588,
      "Love": 8589,
      "OF": 8590,
      "OG": 8591,
      "Out": 8592,
      "Off": 8593,
      "bow": 8594,
      "found": 8595,
      "rim": 8596,
      "ÃĤ": 8597,
      "Ġcos": 8598,
      "Ġdad": 8599,
      "leans": 8600,
      "Ġnorthern": 8601,
      "Ġgang": 8602,
      "ĠTenn": 8603,
      "utt": 8604,
      "iders": 8605,
      "ĠAh": 8606,
      "ĠAqu": 8607,
      "ĠALL": 8608,
      "ĠCas": 8609,
      "Ġstored": 8610,
      "ĠMill": 8611,
      "ila": 8612,
      "ĠWisconsin": 8613,
      "ushing": 8614,
      "ĠGarden": 8615,
      "Ġexhaust": 8616,
      "ĠEss": 8617,
      "Ġchips": 8618,
      "Ġchapter": 8619,
      "odcast": 8620,
      "ĠStory": 8621,
      "ĠKin": 8622,
      "Ġcontaining": 8623,
      "Ġ39": 8624,
      "Ġspots": 8625,
      "ensity": 8626,
      "Ġ44": 8627,
      "Ġactor": 8628,
      "Ġpharm": 8629,
      "Ġbrid": 8630,
      "Ġproved": 8631,
      "Ġfinance": 8632,
      "ĠDeath": 8633,
      "Ġminister": 8634,
      "Web": 8635,
      "bridge": 8636,
      "Ġreputation": 8637,
      "ĠClinton": 8638,
      "ĠOrd": 8639,
      "ĠMayor": 8640,
      "Ġlineup": 8641,
      "ĠIndones": 8642,
      "Ġfacilit": 8643,
      "Ġdrawn": 8644,
      "Ġprotein": 8645,
      "Ġelections": 8646,
      "Ġcombat": 8647,
      "Ġauthentic": 8648,
      "Ġcommonly": 8649,
      "ĠStudent": 8650,
      "Ġdomin": 8651,
      "ĠJudy": 8652,
      "News": 8653,
      "ĠRoberts": 8654,
      "ĠWorking": 8655,
      "Ġcopies": 8656,
      "Ġreliable": 8657,
      "Ġrapidly": 8658,
      "ĠUtah": 8659,
      "Ġsubstantial": 8660,
      "ĠPakistan": 8661,
      "ught": 8662,
      "Ġdisagree": 8663,
      "%.": 8664,
      "Per": 8665,
      "Rem": 8666,
      "aa": 8667,
      "bu": 8668,
      "iary": 8669,
      "mother": 8670,
      "zes": 8671,
      "zheimer": 8672,
      "Ã¡": 8673,
      "reation": 8674,
      "Ġske": 8675,
      "Ġbow": 8676,
      "Ġborder": 8677,
      "Ġpink": 8678,
      "iche": 8679,
      "Ġlady": 8680,
      "ĠIC": 8681,
      "ĠSn": 8682,
      "ĠSab": 8683,
      "etime": 8684,
      "ĠAction": 8685,
      "ĠCase": 8686,
      "igg": 8687,
      "verty": 8688,
      "Ġstir": 8689,
      "Ġstead": 8690,
      "ĠBurn": 8691,
      "ĠBureau": 8692,
      "ĠWould": 8693,
      "ĠWrit": 8694,
      "ĠHouston": 8695,
      "ĠDark": 8696,
      "ĠRub": 8697,
      "Ġconvert": 8698,
      "ĠED": 8699,
      "ĠEX": 8700,
      "Ġshame": 8701,
      "Ġsup": 8702,
      "ĠJerry": 8703,
      "Ġcharm": 8704,
      "Ġchopped": 8705,
      "Ġje": 8706,
      "Ġtrave": 8707,
      "Ġmeals": 8708,
      "Ġupgrade": 8709,
      "Ġsaving": 8710,
      "ĠStock": 8711,
      "obb": 8712,
      "Ġ1960": 8713,
      "Ġpoverty": 8714,
      "Ġdesert": 8715,
      "Ġdeck": 8716,
      "ributes": 8717,
      "ĠArm": 8718,
      "Ġsubmitted": 8719,
      "Ġintervention": 8720,
      "Ġhappiness": 8721,
      "Ġinfection": 8722,
      "Ġexpression": 8723,
      "Ġtries": 8724,
      "Ġproviders": 8725,
      "aturally": 8726,
      "Ġpossibilities": 8727,
      "ĠOrleans": 8728,
      "oked": 8729,
      "cribed": 8730,
      "prof": 8731,
      "Ġmagic": 8732,
      "ĠGuard": 8733,
      "Ġfault": 8734,
      "Ġcontracts": 8735,
      "Ġstriking": 8736,
      "Ġdepends": 8737,
      "Ġresponded": 8738,
      "Ġstruggling": 8739,
      "Ġcollaboration": 8740,
      "Ġincredibly": 8741,
      "Ġintelligent": 8742,
      "Ġproceedings": 8743,
      "Ġdialogue": 8744,
      "Ġcomplainant": 8745,
      "Ġphrase": 8746,
      "ĠAnthony": 8747,
      "Great": 8748,
      "Top": 8749,
      "des": 8750,
      "have": 8751,
      "nce": 8752,
      "uan": 8753,
      "Ġtone": 8754,
      "Ġwave": 8755,
      "Ġwrap": 8756,
      "itches": 8757,
      "Ġcul": 8758,
      "Ġbone": 8759,
      "Ġbass": 8760,
      "Ġfinger": 8761,
      "ĠSite": 8762,
      "ĠSaints": 8763,
      "acher": 8764,
      "ĠCancer": 8765,
      "aman": 8766,
      "irk": 8767,
      "ĠBuff": 8768,
      "ifice": 8769,
      "ĠHand": 8770,
      "Ġorient": 8771,
      "Ġriding": 8772,
      "Ġdeeper": 8773,
      "ĠNations": 8774,
      "ĠNEW": 8775,
      "ĠEmer": 8776,
      "Ġvit": 8777,
      "Ġshit": 8778,
      "Ġtrig": 8779,
      "Ġkit": 8780,
      "Ġkiss": 8781,
      "iece": 8782,
      "Ġouts": 8783,
      "ĠUC": 8784,
      "Ġaden": 8785,
      "ĠStore": 8786,
      "ĠYeah": 8787,
      "Ġagric": 8788,
      "Ġuniverse": 8789,
      "Ġwhenever": 8790,
      "erving": 8791,
      "Ġeverywhere": 8792,
      "Thursday": 8793,
      "Ġsuppose": 8794,
      "Ġattach": 8795,
      "Ġinstant": 8796,
      "Ġefficiency": 8797,
      "Ġavail": 8798,
      "Ġframes": 8799,
      "Ġgenerate": 8800,
      "ĠExpl": 8801,
      "Ġmathemat": 8802,
      "Ġaircraft": 8803,
      "Ġdistingu": 8804,
      "Stud": 8805,
      "Ġfaced": 8806,
      "Ġoccurs": 8807,
      "Ġaccounting": 8808,
      "Ġforecast": 8809,
      "ĠAmendment": 8810,
      "Ġpotentially": 8811,
      "nesota": 8812,
      "Ġcooked": 8813,
      "Ġhyp": 8814,
      "Ġnetworking": 8815,
      "Ġimprovements": 8816,
      "ivalent": 8817,
      "Ġbedroom": 8818,
      "Ġtroub": 8819,
      "ĠPrize": 8820,
      "ĠSystems": 8821,
      "Ġprecise": 8822,
      "Ġappointed": 8823,
      "ĠIllinois": 8824,
      "ĠLiberty": 8825,
      "Ġjuice": 8826,
      "ĠProtection": 8827,
      "Check": 8828,
      "Ġimmigrants": 8829,
      "Ġvulner": 8830,
      "61": 8831,
      "Aug": 8832,
      "Did": 8833,
      "FA": 8834,
      "Sign": 8835,
      "UM": 8836,
      "da": 8837,
      "mont": 8838,
      "ped": 8839,
      "rition": 8840,
      "vin": 8841,
      "Ġ!": 8842,
      "Ġbesides": 8843,
      "ouri": 8844,
      "Ġlying": 8845,
      "Ġelder": 8846,
      "Ġgre": 8847,
      "uting": 8848,
      "ĠCro": 8849,
      "ĠCond": 8850,
      "Ġstages": 8851,
      "ĠMA": 8852,
      "Ġrail": 8853,
      "Ġraces": 8854,
      "ĠFR": 8855,
      "Ġcomic": 8856,
      "ĠOS": 8857,
      "Ġadj": 8858,
      "Ġenlight": 8859,
      "Ġimpl": 8860,
      "Ġcontrolled": 8861,
      "venues": 8862,
      "Ġdismiss": 8863,
      "Ġscar": 8864,
      "Ġundert": 8865,
      "Those": 8866,
      "there": 8867,
      "Ġpassenger": 8868,
      "Ġpossess": 8869,
      "okyo": 8870,
      "ĠResp": 8871,
      "letter": 8872,
      "Ġcomplicated": 8873,
      "Ġreleases": 8874,
      "Ġtrends": 8875,
      "Ġzero": 8876,
      "ameras": 8877,
      "Ġspeaker": 8878,
      "Ġassociation": 8879,
      "flow": 8880,
      "Ġdocumentation": 8881,
      "ĠBoers": 8882,
      "ĠPhiladelphia": 8883,
      "Ġownership": 8884,
      "ĠSummer": 8885,
      "ĠToronto": 8886,
      "Ġcriticism": 8887,
      "Ġbugs": 8888,
      "Ġrejected": 8889,
      "ĠFilm": 8890,
      "Ġmoist": 8891,
      "Ġremarkable": 8892,
      "ĠSusan": 8893,
      "ĠVersion": 8894,
      "Ġdivided": 8895,
      "neumonia": 8896,
      "Best": 8897,
      "Cur": 8898,
      "HR": 8899,
      "IVE": 8900,
      "Join": 8901,
      "lord": 8902,
      "note": 8903,
      "run": 8904,
      "uum": 8905,
      "will": 8906,
      "Ġtons": 8907,
      "Ġsorts": 8908,
      "orf": 8909,
      "Ġfishing": 8910,
      "Ġdess": 8911,
      "Ġdirty": 8912,
      "Ġnose": 8913,
      "step": 8914,
      "style": 8915,
      "Ġgallery": 8916,
      "roit": 8917,
      "ĠTable": 8918,
      "ayers": 8919,
      "ĠAuburn": 8920,
      "ĠCab": 8921,
      "ĠCelt": 8922,
      "ĠMir": 8923,
      "oli": 8924,
      "olis": 8925,
      "ilst": 8926,
      "ĠBad": 8927,
      "ĠWas": 8928,
      "Ġsew": 8929,
      "ĠDar": 8930,
      "ulse": 8931,
      "ĠFL": 8932,
      "ighters": 8933,
      "estions": 8934,
      "ĠNorthern": 8935,
      "antry": 8936,
      "ustration": 8937,
      "ouses": 8938,
      "ĠStone": 8939,
      "Ġcomprom": 8940,
      "achi": 8941,
      "ĠChall": 8942,
      "aved": 8943,
      "ervations": 8944,
      "Ġnoon": 8945,
      "Ġrose": 8946,
      "Ġcoaches": 8947,
      "nell": 8948,
      "Ġflower": 8949,
      "Ġregulatory": 8950,
      "Ġattorney": 8951,
      "Ġreads": 8952,
      "Ġinstances": 8953,
      "ĠArn": 8954,
      "Ġchecks": 8955,
      "aze": 8956,
      "brid": 8957,
      "Ġfounder": 8958,
      "Ġprovider": 8959,
      "ussion": 8960,
      "Ġintent": 8961,
      "Ġdriven": 8962,
      "Ġprominent": 8963,
      "ĠScot": 8964,
      "State": 8965,
      "Ġswing": 8966,
      "Ġaddressed": 8967,
      "Ġenjoying": 8968,
      "Ġtracks": 8969,
      "Ġconvinced": 8970,
      "Ġimmigration": 8971,
      "ĠValent": 8972,
      "Ġtalented": 8973,
      "Ġmedications": 8974,
      "Ġscores": 8975,
      "Ġutter": 8976,
      "burgh": 8977,
      "ĠEveryone": 8978,
      "ĠMadoff": 8979,
      "Ġmistakes": 8980,
      "Ġexpanded": 8981,
      "Ġwaters": 8982,
      "Ġpremium": 8983,
      "criptions": 8984,
      "missions": 8985,
      "Ġpushing": 8986,
      "ĠMassachusetts": 8987,
      "Ġexpertise": 8988,
      "ĠMuslims": 8989,
      "Ġdestroyed": 8990,
      "Ġdemocracy": 8991,
      "Ġprinciple": 8992,
      "Ġretirement": 8993,
      "Ġacknowled": 8994,
      "400": 8995,
      "87": 8996,
      "Car": 8997,
      "Tube": 8998,
      "Wednesday": 8999,
      "oa": 9000,
      "ĠâĢĻ": 9001,
      "inst": 9002,
      "Ġsod": 9003,
      "Ġcu": 9004,
      "Ġfo": 9005,
      "Ġpants": 9006,
      "Ġtox": 9007,
      "Ġmic": 9008,
      "Ġinner": 9009,
      "Ġdiversity": 9010,
      "lled": 9011,
      "Ġgiant": 9012,
      "ĠTalk": 9013,
      "Ġyog": 9014,
      "ĠAG": 9015,
      "ĠCorn": 9016,
      "imedia": 9017,
      "urities": 9018,
      "Ġstable": 9019,
      "olar": 9020,
      "iffe": 9021,
      "ĠDog": 9022,
      "ĠRo": 9023,
      "riers": 9024,
      "ths": 9025,
      "Ġcomedy": 9026,
      "istent": 9027,
      "ĠNation": 9028,
      "ĠLuc": 9029,
      "ĠLocal": 9030,
      "ĠEag": 9031,
      "ĠOcean": 9032,
      "allas": 9033,
      "asted": 9034,
      "Ġyours": 9035,
      "Ġadequ": 9036,
      "Ġcontemporary": 9037,
      "icking": 9038,
      "Ġuncom": 9039,
      "Ġpeer": 9040,
      "Ġ2014": 9041,
      "ĠVice": 9042,
      "Ġscoring": 9043,
      "Ġpride": 9044,
      "weight": 9045,
      "Ġ41": 9046,
      "Ġpoly": 9047,
      "issions": 9048,
      "issippi": 9049,
      "ĠRef": 9050,
      "Ġacceler": 9051,
      "ĠDead": 9052,
      "ĠAlt": 9053,
      "ĠAlab": 9054,
      "ĠShort": 9055,
      "ĠShare": 9056,
      "Ġrepair": 9057,
      "Ġtrips": 9058,
      "Ġapproaches": 9059,
      "Ġoldest": 9060,
      "Ġmatches": 9061,
      "ĠChristopher": 9062,
      "ikes": 9063,
      "Ġdistributed": 9064,
      "Ġsalad": 9065,
      "Ġdealers": 9066,
      "Ġdiscussing": 9067,
      "Ġcerem": 9068,
      "Ġgirlfriend": 9069,
      "Ġportfol": 9070,
      "Ġproduces": 9071,
      "Ġordinary": 9072,
      "ĠNeed": 9073,
      "Ġsteel": 9074,
      "ĠPosted": 9075,
      "Ġfocusing": 9076,
      "Ġcircuit": 9077,
      "Ġstatistics": 9078,
      "Ġroads": 9079,
      "Ġrecommendations": 9080,
      "Ġbabies": 9081,
      "ĠCharl": 9082,
      "Ġtemperatures": 9083,
      "Ġcycl": 9084,
      "ĠKeep": 9085,
      "Ġultimate": 9086,
      "ĠMembers": 9087,
      "netic": 9088,
      "ĠIsraeli": 9089,
      "ĠAnnual": 9090,
      "ĠScientologists": 9091,
      "ĠPortland": 9092,
      "Ġpowers": 9093,
      "Ġconcrete": 9094,
      "Ġtransferred": 9095,
      "xxxx": 9096,
      "Ġweapon": 9097,
      "Ġadopted": 9098,
      "Ġratio": 9099,
      "Ġtroops": 9100,
      "Ġuniversities": 9101,
      "ĠHelp": 9102,
      "ĠSquare": 9103,
      "Ġlecture": 9104,
      "January": 9105,
      "ĠGrove": 9106,
      "Ġunexpected": 9107,
      "Ġtestimony": 9108,
      "DP": 9109,
      "GB": 9110,
      "Mich": 9111,
      "dis": 9112,
      "rac": 9113,
      "Ġturb": 9114,
      "Ġsilly": 9115,
      "anne": 9116,
      "ashes": 9117,
      "ĠIRS": 9118,
      "Ġrend": 9119,
      "Ġrely": 9120,
      "Ġelev": 9121,
      "Ġgathered": 9122,
      "rob": 9123,
      "ĠCirc": 9124,
      "ĠMD": 9125,
      "ĠBC": 9126,
      "child": 9127,
      "ĠPo": 9128,
      "âĢĻ,": 9129,
      "ĠNon": 9130,
      "unate": 9131,
      "ĠLine": 9132,
      "elve": 9133,
      "Ġvib": 9134,
      "osc": 9135,
      "ĠJoh": 9136,
      "Ġchap": 9137,
      "Ġmyster": 9138,
      "ipes": 9139,
      "icked": 9140,
      "ultural": 9141,
      "Ġapples": 9142,
      "comm": 9143,
      "Ġinval": 9144,
      "Ġinvite": 9145,
      "ĠProp": 9146,
      "Ġcarries": 9147,
      "ĠAlzheimer": 9148,
      "Ġformal": 9149,
      "Ġopposed": 9150,
      "Ġhealthcare": 9151,
      "ĠCommon": 9152,
      "Ġhumans": 9153,
      "Ġperformances": 9154,
      "Ġparam": 9155,
      "Ġtremend": 9156,
      "Ġfallen": 9157,
      "Ġpacked": 9158,
      "Ġprivile": 9159,
      "Ġsubjects": 9160,
      "ĠMinnesota": 9161,
      "Ġrepresentative": 9162,
      "ĠSchools": 9163,
      "ĠStudy": 9164,
      "Ġdescribes": 9165,
      "Ġdeadline": 9166,
      "Ġcollections": 9167,
      "Ġregardless": 9168,
      "Ġlosses": 9169,
      "Ġextraordinary": 9170,
      "ĠFinally": 9171,
      "ĠUpdate": 9172,
      "Ġtranslation": 9173,
      "Ġsequence": 9174,
      "Ġwireless": 9175,
      "Ġtelephone": 9176,
      "Ġoblig": 9177,
      "Ġsamples": 9178,
      "Ġheavily": 9179,
      "ĠRussell": 9180,
      "aun": 9181,
      "bro": 9182,
      "days": 9183,
      "ridge": 9184,
      "test": 9185,
      "zed": 9186,
      "Ġbits": 9187,
      "Ġtooth": 9188,
      "Ġmob": 9189,
      "Ġdump": 9190,
      "Ġhill": 9191,
      "Ġthrows": 9192,
      "leep": 9193,
      "Ġloving": 9194,
      "Ġease": 9195,
      "idency": 9196,
      "urse": 9197,
      "Ġhel": 9198,
      "ĠPitt": 9199,
      "kel": 9200,
      "ĠWash": 9201,
      "ĠHay": 9202,
      "ulus": 9203,
      "ulum": 9204,
      "ĠNHL": 9205,
      "ĠLum": 9206,
      "ĠLaur": 9207,
      "ĠLanguage": 9208,
      "ĠGre": 9209,
      "ĠEst": 9210,
      "Ġvoc": 9211,
      "Ġchip": 9212,
      "apore": 9213,
      "oding": 9214,
      ".....": 9215,
      "ĠUr": 9216,
      "Ġadmin": 9217,
      "ects": 9218,
      "ĠStation": 9219,
      "Ġimplic": 9220,
      "ickets": 9221,
      "ĠHeart": 9222,
      "Ġrecall": 9223,
      "orship": 9224,
      "Ġgrounds": 9225,
      "Ġaccused": 9226,
      "Ġactors": 9227,
      "Ġbrush": 9228,
      "Ġacid": 9229,
      "Ġacres": 9230,
      "Ġbelt": 9231,
      "Ġendless": 9232,
      "Ġdeveloper": 9233,
      "Ġ99": 9234,
      "Ġsigning": 9235,
      "Ġsignature": 9236,
      "Ġvisible": 9237,
      "Ġexposure": 9238,
      "Ġ02": 9239,
      "Ġprize": 9240,
      "ĠHoward": 9241,
      "Ġsurely": 9242,
      "Ġanniversary": 9243,
      "Ġdemands": 9244,
      "Ġpayments": 9245,
      "Ġemployer": 9246,
      "erald": 9247,
      "ORE": 9248,
      "Ġhosts": 9249,
      "Ġresponses": 9250,
      "ĠComputer": 9251,
      "Ġportra": 9252,
      "Ġrival": 9253,
      "Ġdeclar": 9254,
      "Ġpriority": 9255,
      "Ġutility": 9256,
      "Ġretailers": 9257,
      "Ġcollaborative": 9258,
      "Ġsubstance": 9259,
      "ĠTravel": 9260,
      "Ġpumpkin": 9261,
      "ĠIslamic": 9262,
      "Ġconsequences": 9263,
      "ĠCuba": 9264,
      "Ġchampionship": 9265,
      "Ġunlikely": 9266,
      "ĠOklahoma": 9267,
      "Ġpreparation": 9268,
      "ĠBarbara": 9269,
      "ĠSoftware": 9270,
      "Ġlifestyle": 9271,
      "Each": 9272,
      "Gener": 9273,
      "def": 9274,
      "hour": 9275,
      "ias": 9276,
      "iro": 9277,
      "lo": 9278,
      "rain": 9279,
      "Ġpale": 9280,
      "Ġinev": 9281,
      "Ġdil": 9282,
      "stop": 9283,
      "Ġrender": 9284,
      "ĠTell": 9285,
      "ĠTotal": 9286,
      "ĠSaint": 9287,
      "sex": 9288,
      "sect": 9289,
      "ĠCamera": 9290,
      "ĠCooper": 9291,
      "ĠMov": 9292,
      "ĠBry": 9293,
      "cho": 9294,
      "ĠPunk": 9295,
      "ĠHor": 9296,
      "ĠDS": 9297,
      "ĠRun": 9298,
      "ĠRos": 9299,
      "Ġrational": 9300,
      "oret": 9301,
      "ĠGM": 9302,
      "quarters": 9303,
      "Ġvill": 9304,
[...]
